<unk>	0
<s>	0
</s>	0
<cls>	0
<sep>	0
<sent>	0
<stm>	0
<mask>	0
<oov>	0
<pad>	0
<end>	0
▁of	-3.69711
▁the	-3.79845
,	-3.91503
.	-3.94593
▁or	-4.05987
:	-4.09257
▁	-4.23952
▁(	-4.24178
)	-4.43973
▁to	-4.47481
▁and	-4.569
%)	-4.58687
▁in	-4.72193
/	-4.75883
▁with	-4.79824
-	-4.80027
▁for	-4.86584
▁a	-4.88683
▁patients	-5.01386
▁(0.00	-5.26637
ing	-5.2961
s	-5.31223
▁be	-5.31969
▁disease	-5.33101
▁breast	-5.38257
▁trial	-5.39119
▁prior	-5.39989
e	-5.49486
2	-5.51202
▁therapy	-5.52376
▁mg	-5.52871
▁study	-5.54024
▁1	-5.54796
▁at	-5.56213
▁participants	-5.56269
▁treatment	-5.57823
d	-5.61184
▁primary	-5.62794
▁cancer	-5.63011
▁*	-5.66719
▁as	-5.69402
▁by	-5.69695
▁is	-5.6999
ed	-5.70439
▁arm	-5.75664
▁no	-5.75784
▁criteria	-5.76268
▁1:	-5.78594
▁on	-5.78841
▁must	-5.79502
▁days	-5.80288
▁are	-5.81657
▁not	-5.82487
▁weeks	-5.84354
▁2	-5.87868
al	-5.90125
▁have	-5.91645
3	-5.91821
0%)	-5.92291
▁than	-5.94919
▁total	-5.9542
▁events	-6.02645
group	-6.03312
▁any	-6.04476
▁within	-6.04746
▁3	-6.05006
1	-6.05667
▁months	-6.10478
▁other	-6.13684
;	-6.14505
▁number	-6.14592
4	-6.14816
m	-6.16314
▁from	-6.18682
▁dose	-6.19529
▁patient	-6.20935
▁measure	-6.22528
▁that	-6.23661
▁2:	-6.24975
▁will	-6.25299
▁4	-6.26016
▁neutropenia	-6.27955
▁chemotherapy	-6.31645
ly	-6.33587
▁years	-6.34295
▁was	-6.34719
▁history	-6.36178
▁least	-6.36468
▁6	-6.37058
▁day	-6.38521
▁over	-6.39807
▁adverse	-6.41509
▁iv	-6.432
▁progression	-6.45451
▁time	-6.45785
▁who	-6.4641
▁intervention	-6.46716
▁response	-6.47131
▁cardiac	-6.47402
▁(0.0	-6.51642
▁if	-6.51895
▁an	-6.53264
▁daily	-6.55236
▁results	-6.59174
after	-6.59825
le	-6.61093
▁status	-6.64653
▁failure	-6.67077
▁5	-6.6759
▁cohort	-6.6776
▁eligible	-6.68161
▁receive	-6.6849
or	-6.69074
y	-6.69351
▁metastatic	-6.69359
).	-6.6958
0	-6.70413
▁received	-6.70462
9%)	-6.71503
▁secondary	-6.71949
▁unit	-6.72785
▁analyzed	-6.72787
▁un	-6.73656
▁use	-6.74092
▁more	-6.744
▁description	-6.74816
▁non	-6.74993
7%)	-6.75638
▁fe	-6.77223
l	-6.77746
8%)	-6.77793
▁cycle	-6.77878
▁tumor	-6.77956
▁tit	-6.78432
▁surgery	-6.79374
▁normal	-6.80032
▁>	-6.80198
▁concurrent	-6.80408
▁infection	-6.81175
▁x	-6.83263
▁grade	-6.84363
▁pain	-6.84509
n	-6.84541
▁women	-6.84675
▁following	-6.85113
▁radiation	-6.85486
▁one	-6.85508
▁carcinoma	-6.85567
▁her	-6.86835
▁exclusion	-6.86857
5%)	-6.86885
▁all	-6.87411
▁trastuzumab	-6.8793
bril	-6.89734
all	-6.92114
6	-6.93454
▁12	-6.94595
▁known	-6.94691
6%)	-6.95245
▁active	-6.95603
▁type	-6.95967
▁treated	-6.96234
▁given	-6.96327
▁limit	-6.98009
▁were	-6.99445
▁this	-6.99513
),	-7.00341
▁count	-7.01295
▁+	-7.01988
▁cycles	-7.03355
▁once	-7.03592
▁adequate	-7.0368
adverse	-7.04143
has	-7.04173
▁function	-7.05172
mg	-7.05714
▁lesions	-7.0586
▁clinical	-7.06186
▁administered	-7.06286
ce	-7.06571
▁baseline	-7.0794
▁allowed	-7.08281
ular	-7.10384
▁bone	-7.10578
▁orally	-7.1083
▁first	-7.11047
▁may	-7.11823
▁consent	-7.12318
▁greater	-7.12721
▁confirmed	-7.13661
▁30	-7.14325
▁percent	-7.14614
▁subjects	-7.14705
c	-7.15037
▁define	-7.15114
▁toxicity	-7.15136
▁situ	-7.15687
▁-	-7.15723
▁age	-7.16131
▁stage	-7.16402
ive	-7.16556
▁pregnant	-7.17054
5	-7.17063
▁had	-7.17914
▁18	-7.18337
▁negative	-7.18351
▁evidence	-7.18376
ic	-7.18478
▁last	-7.19323
▁performance	-7.19525
▁skin	-7.19547
▁uncontrolled	-7.2025
▁invasive	-7.21608
▁during	-7.22073
▁uln	-7.23108
inclusion	-7.23173
▁upper	-7.23778
▁e	-7.24091
▁8	-7.24281
▁measurement	-7.24487
▁group	-7.25038
▁complete	-7.25708
t	-7.25997
age	-7.26023
▁week	-7.26188
▁receptor	-7.263
g	-7.26343
a	-7.26609
▁positive	-7.26731
▁21	-7.27004
intervention	-7.27073
▁biopsy	-7.27372
8	-7.27473
▁ever	-7.27513
▁frame	-7.27868
▁per	-7.29288
▁0/3	-7.29911
▁each	-7.30159
▁heart	-7.31963
▁lymph	-7.32096
able	-7.32383
▁w	-7.33091
▁hormonal	-7.33107
▁including	-7.33542
▁paclitaxel	-7.33617
▁<	-7.34204
▁10	-7.34353
▁28	-7.35729
▁which	-7.36002
▁times	-7.36261
▁only	-7.366
7	-7.36746
▁oral	-7.36812
▁abdominal	-7.3716
▁metastases	-7.37264
▁randomization	-7.38114
▁drug	-7.38184
▁1/	-7.3823
▁date	-7.38307
▁adjuvant	-7.38334
▁radiotherapy	-7.38415
▁anti	-7.38979
kg	-7.39053
▁informed	-7.39493
▁anaemia	-7.39496
ir	-7.39747
▁i	-7.39981
▁receiv	-7.40303
▁significant	-7.40325
▁potential	-7.40331
st	-7.40845
'	-7.40861
▁but	-7.41528
▁creatinine	-7.41622
▁1.5	-7.4171
▁1/5	-7.41999
^2	-7.4201
▁nausea	-7.42039
▁death	-7.43496
out	-7.44683
▁c	-7.44895
9	-7.44935
▁ventric	-7.45047
▁cell	-7.45521
ould	-7.45959
▁histologically	-7.46164
▁measurable	-7.46275
▁target	-7.4706
▁less	-7.47367
▁past	-7.47396
ve	-7.47495
outcome	-7.47884
▁undergo	-7.47958
▁medical	-7.481
▁infusion	-7.48687
▁0/6	-7.49104
▁hormone	-7.49665
▁entry	-7.49806
trial	-7.50526
▁before	-7.51084
ll	-7.51137
▁b	-7.51564
thrombocytopenia	-7.51699
▁serum	-7.51771
▁(2.0	-7.5233
▁pregnancy	-7.52929
mm	-7.53131
▁t	-7.54233
dl	-7.54352
▁up	-7.54674
▁test	-7.55437
▁either	-7.55562
▁15	-7.56522
▁investigational	-7.56547
▁[	-7.56818
▁vomiting	-7.57593
▁systemic	-7.5772
▁previous	-7.57736
▁overa	-7.57899
▁followed	-7.58005
▁myocardi	-7.58199
▁lapatinib	-7.58923
▁minutes	-7.59236
▁placebo	-7.59689
ine	-7.61691
▁1/6	-7.62674
▁weekly	-7.6318
▁malignancy	-7.63392
▁brain	-7.63409
▁po	-7.63599
▁bilirubin	-7.63757
▁contraception	-7.6409
▁scan	-7.64134
▁letrozole	-7.64191
▁female	-7.64344
▁2.5	-7.64608
▁clinically	-7.6472
▁diagnosis	-7.64822
▁subject	-7.65051
acceptable	-7.65089
▁characteristics	-7.65169
▁there	-7.65297
▁interval	-7.6618
▁investigator	-7.66575
ance	-7.66895
▁imaging	-7.67077
▁both	-7.67362
▁plus	-7.67363
▁0	-7.67461
▁surgical	-7.68423
▁infarction	-7.68474
▁node	-7.68629
▁current	-7.69013
▁should	-7.69235
▁fibrillation	-7.69245
nce	-7.69842
▁renal	-7.70015
▁been	-7.70044
▁severe	-7.70434
▁tumors	-7.70812
▁specified	-7.70821
▁liver	-7.70851
▁14	-7.7223
tive	-7.72488
▁using	-7.72764
▁administration	-7.73068
▁left	-7.73474
▁evaluation	-7.73759
▁protocol	-7.74214
▁7	-7.744
▁(0.2	-7.75007
▁g	-7.7514
▁child	-7.75216
▁m	-7.75827
▁(1.9	-7.76393
▁new	-7.76744
▁inclusion	-7.77142
▁symptomatic	-7.77535
▁life	-7.77641
▁performed	-7.77926
▁60	-7.7797
▁standard	-7.78035
cyclophosphamide	-7.78321
il	-7.78348
▁axillary	-7.78357
i	-7.78522
her	-7.78753
▁angina	-7.78802
▁lesion	-7.79069
▁agents	-7.79117
▁ii	-7.79495
ation	-7.79909
▁laboratory	-7.79971
▁1,	-7.79982
▁blood	-7.80007
▁conge	-7.80273
▁can	-7.80285
▁effusion	-7.80309
▁two	-7.8037
▁n	-7.80469
▁capecitabine	-7.80477
▁nodes	-7.80517
tic	-7.80586
▁excluded	-7.8084
day	-7.81301
▁medication	-7.81633
til	-7.82451
▁increase	-7.82498
▁hepatic	-7.83404
up	-7.83982
▁illness	-7.84237
▁completion	-7.84238
+	-7.84762
▁partial	-7.85708
▁except	-7.86088
▁tamoxifen	-7.86101
▁du	-7.86209
▁neoadjuvant	-7.86213
▁pre	-7.8682
▁participant	-7.86853
▁tissue	-7.86895
▁period	-7.86898
▁pr	-7.87024
▁participation	-7.8735
▁dysfunction	-7.87799
▁studies	-7.878
um	-7.87921
in	-7.88619
▁median	-7.88765
▁alkal	-7.88816
▁drugs	-7.90429
ion	-7.90808
▁mri	-7.90934
ous	-7.90941
▁documented	-7.92184
▁risk	-7.92336
▁assessment	-7.92436
▁unt	-7.92555
▁0/1	-7.92674
▁psychiatric	-7.92929
▁enrollment	-7.93395
gastrointestinal	-7.93481
▁(1.4	-7.93591
▁acute	-7.93917
▁accord	-7.9396
▁equal	-7.94479
▁phosphatase	-7.94844
▁willing	-7.95043
ability	-7.95095
▁0/	-7.95145
▁defin	-7.95309
▁institution	-7.9543
▁metastasis	-7.95504
ity	-7.95669
▁syndrome	-7.95821
▁endocrine	-7.95843
▁control	-7.96137
▁requir	-7.96187
▁leukopenia	-7.96314
▁required	-7.96318
▁such	-7.96593
▁analysis	-7.9731
▁survival	-7.9732
.,	-7.97902
2-	-7.98029
▁>=	-7.98179
▁marrow	-7.98308
]	-7.98409
positive	-7.98522
▁mm	-7.98684
▁20	-7.98685
▁serious	-7.98863
▁herceptin	-7.99204
▁sum	-7.99287
▁(0.9	-7.99309
▁diarrhoea	-7.99321
▁effective	-7.99341
▁arrhythmia	-7.99352
▁advanced	-7.99408
▁single	-7.99832
▁neutrophil	-7.99864
▁estrogen	-8.00085
▁hemoglobin	-8.00391
▁si	-8.00592
):	-8.01103
▁event	-8.01459
vascular	-8.01847
▁pericardial	-8.01946
▁rate	-8.02025
▁stable	-8.02121
▁1/3	-8.02147
en	-8.02182
▁(2.4	-8.02264
▁0/5	-8.02286
▁participate	-8.0232
▁change	-8.02425
▁agent	-8.02676
▁(0.3	-8.0279
▁exemestane	-8.03044
▁diarrhea	-8.03593
▁100	-8.03652
very	-8.03798
▁gy	-8.03986
▁bevacizumab	-8.04058
▁docetaxel	-8.04107
▁assessed	-8.04128
▁phase	-8.04354
▁(0.8	-8.04419
95%	-8.04627
▁co	-8.04744
▁(0.4	-8.04758
▁24	-8.04834
pr	-8.05248
▁system	-8.05286
▁1/41	-8.0535
(	-8.05492
▁they	-8.05736
▁sam	-8.05869
b	-8.05872
▁bilateral	-8.06787
▁fraction	-8.06883
▁absen	-8.06918
o	-8.06981
▁repeat	-8.07263
iv	-8.07389
▁twice	-8.07812
▁neuropathy	-8.07815
▁ecog	-8.08074
▁doses	-8.08175
cr	-8.08903
▁intra	-8.08927
▁chronic	-8.09033
oncology	-8.09109
▁major	-8.09488
▁platelet	-8.09575
lute	-8.09933
negative	-8.1004
▁chest	-8.10157
▁determined	-8.10361
▁expectancy	-8.11195
▁method	-8.11288
▁regimen	-8.116
▁combination	-8.11801
bear	-8.1181
▁p	-8.11958
▁doxorubicin	-8.12465
▁locally	-8.125
▁used	-8.12609
▁high	-8.12716
▁er	-8.13172
us	-8.13212
▁year	-8.1328
as	-8.13676
▁unstable	-8.14245
▁progressive	-8.14266
▁also	-8.15287
▁duration	-8.15319
▁mastectomy	-8.15457
▁perip	-8.15594
jection	-8.15624
▁based	-8.15751
not	-8.15766
ry	-8.1609
▁starting	-8.16263
▁hypertension	-8.16491
▁condition	-8.16615
▁conditions	-8.1697
▁fracture	-8.17095
▁abso	-8.17279
▁cm	-8.17431
▁schedule	-8.17563
▁tachycardia	-8.17706
▁care	-8.17959
ecog	-8.1817
▁40	-8.18326
67	-8.18488
▁disorders	-8.18742
▁80	-8.1971
uln	-8.19845
▁cervix	-8.20181
▁hours	-8.20468
▁intravenous	-8.20669
▁central	-8.21026
▁=	-8.21093
▁start	-8.21477
▁basal	-8.22101
▁related	-8.22107
▁1/7	-8.2211
▁(0.1	-8.22368
▁completed	-8.23019
▁local	-8.23074
▁post	-8.23405
▁screening	-8.23476
ness	-8.23771
on	-8.23828
▁hepatitis	-8.24046
▁ast	-8.24165
▁provided	-8.24171
▁recist	-8.25187
1/50	-8.25215
▁postmenopausal	-8.25342
▁adenocarcinoma	-8.25358
▁9	-8.25402
▁d	-8.25965
▁acid	-8.26487
▁written	-8.26656
ated	-8.26999
min	-8.27044
▁(1.3	-8.27169
▁nursing	-8.27333
▁cns	-8.27602
▁bleeding	-8.28135
▁follow	-8.28149
▁diagnosed	-8.28236
w	-8.28293
▁1/11	-8.2896
▁cases	-8.28963
▁procedures	-8.29137
▁ha	-8.29201
▁(1.2	-8.29278
▁recurrence	-8.29768
er	-8.2988
▁part	-8.299
▁device	-8.30262
▁1.	-8.30418
▁correlat	-8.3044
▁ml	-8.30499
▁eribulin	-8.30783
▁hypersensitiv	-8.30943
▁disorder	-8.30971
▁pulmonary	-8.31415
▁50	-8.31542
▁0/20	-8.31846
▁colitis	-8.3193
free	-8.3204
▁setting	-8.3244
▁inhibitors	-8.32608
▁injection	-8.32664
▁physical	-8.32916
ongest	-8.33227
▁fulvestrant	-8.34299
▁intravenously	-8.34463
r	-8.34663
▁coronary	-8.35056
▁recorded	-8.35085
p	-8.35714
▁agree	-8.35787
aminotransferase	-8.36062
);	-8.36195
▁pectoris	-8.36488
▁considered	-8.36525
▁lower	-8.36536
▁(1.0	-8.36847
▁(0.6	-8.36921
▁mean	-8.3696
▁soli	-8.37076
▁free	-8.37323
▁100,000/	-8.37447
▁pfs	-8.37662
▁cr	-8.37685
▁eve	-8.37894
▁inhibitor	-8.38385
▁health	-8.38727
▁v	-8.38826
▁ductal	-8.38944
▁nerv	-8.39373
▁squamous	-8.39518
▁biologic	-8.39643
▁these	-8.39669
▁unless	-8.39797
▁ihc	-8.39874
▁(1.5	-8.39903
▁courses	-8.39948
▁medications	-8.4034
▁sign	-8.40484
▁sin	-8.40624
▁physician	-8.41302
▁(1.6	-8.41321
▁it	-8.41429
▁begin	-8.42092
▁month	-8.42313
ning	-8.42583
recist	-8.42699
▁recurrent	-8.42738
▁f	-8.42762
▁decreased	-8.42861
▁diameter	-8.42879
▁core	-8.42984
▁1/10	-8.43331
▁(0.5	-8.43657
▁progesterone	-8.44227
▁ct	-8.44792
▁additional	-8.44858
▁(2.5	-8.44903
▁three	-8.44955
▁measured	-8.45082
▁continue	-8.45254
objective	-8.45384
▁tablets	-8.45401
▁inflammatory	-8.45517
x	-8.45612
▁fatigue	-8.4576
▁through	-8.4587
based	-8.45961
▁(3.8	-8.46103
▁site	-8.46211
h	-8.46422
▁ipsilateral	-8.46611
▁cause	-8.46825
▁under	-8.47252
52	-8.47284
▁dehydration	-8.47395
▁organ	-8.47411
cancer	-8.48333
▁25	-8.4845
▁de	-8.48588
▁document	-8.48743
▁registration	-8.49054
▁requirements	-8.49223
▁compliance	-8.49354
▁1/9	-8.49432
▁meet	-8.49508
operative	-8.49774
▁long	-8.50077
▁alt	-8.5146
▁1/48	-8.51683
▁tablet	-8.52023
▁q	-8.52205
▁re	-8.52305
▁s	-8.52328
▁(4.1	-8.52496
▁procedure	-8.52864
▁res	-8.52867
▁pneumonia	-8.53327
▁another	-8.5343
▁0/4	-8.54086
▁1/8	-8.54473
▁previously	-8.54578
▁reaction	-8.5461
▁level	-8.54647
▁qd	-8.54726
▁different	-8.54899
▁conf	-8.5493
▁lumpectomy	-8.55209
▁ulcer	-8.55237
▁1/1	-8.55611
▁(1.7	-8.55646
▁resection	-8.55983
▁withdrawal	-8.56052
▁discontinued	-8.56206
▁0/2	-8.56352
▁range	-8.56482
76	-8.56594
▁end	-8.56765
▁initiation	-8.56898
idence	-8.56914
▁cohorts	-8.57354
▁controlled	-8.57473
ne	-8.57504
coagulation	-8.57699
▁inter	-8.57738
▁clearance	-8.57808
^3	-8.57823
▁initial	-8.57982
▁understand	-8.58709
▁alone	-8.58827
▁h	-8.58834
▁lactating	-8.58882
▁require	-8.58917
▁16	-8.59224
▁course	-8.59313
▁planned	-8.59675
▁human	-8.59758
▁iii	-8.59937
70	-8.59957
▁treat	-8.60088
▁where	-8.60436
▁hiv	-8.60594
▁anastrozole	-8.60673
▁pathological	-8.60745
currently	-8.60782
▁90	-8.61361
▁taking	-8.61636
▁pet	-8.61918
▁do	-8.62417
itant	-8.62432
▁testing	-8.62729
▁1/26	-8.63048
▁0/7	-8.63112
▁0/10	-8.63254
▁data	-8.63431
▁(1	-8.63457
▁needle	-8.63617
▁fish	-8.64137
▁symptoms	-8.64481
▁cytologically	-8.64504
▁evaluated	-8.64532
▁could	-8.64692
urine	-8.65296
▁confi	-8.6547
ast	-8.65568
▁second	-8.65581
▁whil	-8.65618
es	-8.65656
▁cyp	-8.66051
▁take	-8.66179
itis	-8.66231
▁observed	-8.66385
▁outcome	-8.66447
nel	-8.66614
▁(1.8	-8.66923
▁pancytopenia	-8.67368
▁hydrochloride	-8.67368
▁fever	-8.67618
▁2.0	-8.67627
anc	-8.67661
38	-8.68177
▁regimens	-8.68211
▁compression	-8.68377
▁constipation	-8.68378
▁thrombosis	-8.6838
▁common	-8.6841
ct	-8.68519
ary	-8.69026
▁decrease	-8.69079
▁2.	-8.69239
▁min	-8.69313
ever	-8.69384
▁pathologic	-8.69413
stern	-8.69903
▁3+	-8.69978
▁preclude	-8.70442
▁comply	-8.70468
▁higher	-8.70521
▁included	-8.70652
98	-8.7075
▁(3.	-8.70825
target	-8.7126
taken	-8.71461
▁hybridization	-8.71471
k	-8.71518
▁carboplatin	-8.71612
▁see	-8.71797
▁o	-8.71824
ml	-8.71824
▁1000	-8.72371
▁platelets	-8.7241
▁ongoing	-8.72544
▁anemia	-8.72551
▁replacement	-8.72571
▁8,	-8.72651
tate	-8.72783
▁hour	-8.72869
ial	-8.73329
pd	-8.73461
related	-8.73551
▁afatinib	-8.73586
▁hemorrhage	-8.73653
▁irradiation	-8.73682
▁(3.0	-8.74049
eal	-8.74236
▁lvef	-8.74428
dence	-8.74453
current	-8.74554
▁pressure	-8.74662
▁aspar	-8.75003
▁she	-8.7504
▁into	-8.75066
▁experience	-8.75255
▁(2.7	-8.75547
▁diabetes	-8.75748
alt	-8.75802
▁result	-8.76359
69	-8.76372
▁(2	-8.76404
including	-8.76744
twe	-8.77168
▁sepsis	-8.77222
▁general	-8.7726
33	-8.7758
▁1/20	-8.77674
▁ascites	-8.77957
▁involvement	-8.77959
▁gemcitabine	-8.78059
▁levels	-8.78564
▁maxim	-8.78684
▁case	-8.78703
▁dasatinib	-8.79081
▁when	-8.79224
▁1/14	-8.79273
▁bid	-8.79803
▁acceptable	-8.79855
▁0/24	-8.80075
▁200	-8.80085
ment	-8.80091
▁arrest	-8.80217
▁apply	-8.8025
▁therapeutic	-8.80299
▁examination	-8.80869
▁growth	-8.81366
▁birth	-8.81469
▁old	-8.81497
▁0/8	-8.81516
▁75	-8.81521
▁small	-8.81605
▁menopausal	-8.81925
▁lung	-8.82033
trastuzumab	-8.82483
▁pyrexia	-8.82529
▁opinion	-8.82529
▁biomarker	-8.8253
▁malignancies	-8.8253
▁therapies	-8.82566
▁older	-8.82575
▁ea	-8.82736
▁corticosteroids	-8.82737
▁pd	-8.82877
neu	-8.82882
▁exam	-8.83156
▁low	-8.83525
▁met	-8.83535
▁you	-8.8368
▁definitive	-8.83722
▁1/30	-8.83729
▁mammography	-8.83766
▁500	-8.83872
▁immuno	-8.84158
▁approximate	-8.84296
▁expander	-8.84393
▁score	-8.84482
▁(3.3	-8.84501
▁continuous	-8.84772
▁impairment	-8.84904
▁available	-8.84905
▁fertil	-8.8492
▁sinus	-8.84935
▁(4.0	-8.85115
▁steroids	-8.85204
week	-8.85764
▁50%	-8.85854
▁(6	-8.85884
ose	-8.86086
▁permitted	-8.86102
▁1/25	-8.8612
▁artery	-8.8612
▁similar	-8.86209
▁recent	-8.8628
▁reconstruction	-8.86327
disease	-8.86668
▁reactions	-8.86759
▁haemorrhag	-8.86801
▁taxane	-8.86892
▁0/9	-8.87151
▁contralateral	-8.87321
▁does	-8.87372
▁participating	-8.87393
▁randomized	-8.87433
▁1,500/	-8.87507
lvef	-8.87554
▁appropriate	-8.87816
ally	-8.88039
▁wound	-8.88067
▁dissection	-8.88558
▁size	-8.8857
▁eligibility	-8.88731
▁image	-8.88819
▁cardio	-8.89114
%	-8.89268
▁exercise	-8.89292
▁cells	-8.89305
▁rest	-8.89376
88	-8.89443
▁(0.7	-8.89682
▁topical	-8.89738
pcr	-8.89878
▁anc	-8.8996
▁gastr	-8.90048
▁interfer	-8.90234
▁1/33	-8.90675
▁suspicio	-8.91071
▁activity	-8.91083
▁block	-8.91168
▁applied	-8.91225
▁virus	-8.91305
fish	-8.91389
▁protein	-8.91867
▁benefit	-8.9187
te	-8.91873
▁(1.1	-8.91931
▁th	-8.92284
▁toxicities	-8.92353
▁obstruction	-8.92363
▁epirubicin	-8.9241
▁echocardiogram	-8.9247
▁disappear	-8.92527
▁sc	-8.92873
po	-8.93221
▁l	-8.93225
▁acquisition	-8.93651
▁recovered	-8.93726
▁occurred	-8.93811
▁below	-8.93872
▁form	-8.93888
▁safety	-8.93889
most	-8.93948
ofs	-8.94304
melanoma	-8.94523
▁male	-8.94804
25	-8.94868
▁subsequent	-8.94967
▁unknown	-8.94975
▁disse	-8.94984
▁immunotherapy	-8.95156
▁conco	-8.95158
▁(5.0	-8.95257
▁0-1	-8.95387
▁ischemia	-8.95388
▁axilla	-8.95489
▁off	-8.95728
▁di	-8.95819
▁1/24	-8.96061
▁hyper	-8.96173
▁coagulopathy	-8.96301
▁dyspnea	-8.96302
ar	-8.96479
▁whole	-8.96624
37	-8.96682
▁(3.1	-8.96836
▁multi	-8.96931
-2	-8.97142
▁exception	-8.97268
▁present	-8.97302
&	-8.97637
▁allergy	-8.97654
▁tract	-8.97683
▁staining	-8.97733
▁vitamin	-8.97733
▁tumour	-8.97734
▁1/37	-8.97799
▁0/21	-8.97807
▁cardiovascular	-8.98016
▁york	-8.99018
▁reproduc	-8.99021
▁senti	-8.99023
▁calculated	-8.99049
▁density	-8.99085
▁zoledron	-8.99144
▁evaluable	-8.99207
▁treatments	-8.99289
▁alanine	-8.99299
▁0-2	-8.99346
▁via	-8.99443
▁magne	-8.99692
μ	-8.99718
▁1.1	-8.99805
▁hav	-8.99894
▁contraceptive	-8.99928
▁(3	-9.0024
▁curative	-9.00266
▁confirmation	-9.00426
ent	-9.00582
▁supraven	-9.0062
▁(3.2	-9.00704
▁interventions	-9.00888
standard	-9.00915
pfs	-9.00977
▁area	-9.01161
an	-9.01309
▁1/29	-9.01374
▁factor	-9.01401
▁arrhythmias	-9.01797
▁vertigo	-9.01817
▁aromatase	-9.01818
▁cardiomyopathy	-9.01819
▁remain	-9.01874
▁fluorescen	-9.0201
▁2/	-9.02096
▁con	-9.02149
▁limits	-9.02589
▁note	-9.02613
▁1500	-9.02659
50%)	-9.02785
▁determine	-9.0295
▁association	-9.03257
▁allergic	-9.03264
▁(4.5	-9.03431
▁(4.3	-9.03441
▁milligrams	-9.03495
▁dcis	-9.03746
30%	-9.03757
▁dlt	-9.03892
▁signed	-9.03899
ihc	-9.03905
urinary	-9.03924
patients	-9.0405
00	-9.04164
▁well	-9.04165
▁1/17	-9.04404
60	-9.04418
ky	-9.04612
▁bowel	-9.04694
▁premenopausal	-9.04797
▁effects	-9.04871
48	-9.05021
dose	-9.05087
08	-9.05223
▁class	-9.05256
▁english	-9.06165
▁however	-9.06169
▁management	-9.06169
▁(2.1	-9.06236
▁done	-9.06283
▁contrast	-9.06583
▁values	-9.0662
measurable	-9.06806
▁1/4	-9.0695
▁presen	-9.07016
▁nos	-9.07491
▁(0.	-9.07652
▁mesylate	-9.07658
▁out	-9.07676
▁dosing	-9.07744
eral	-9.079
immunodeficiency	-9.08095
^2)	-9.08243
hormonal	-9.08319
intestinal	-9.08458
▁0/17	-9.085
▁load	-9.0859
0%	-9.08665
▁ratio	-9.08695
▁did	-9.08722
2)	-9.08974
▁1.0	-9.09045
th	-9.09047
▁0/26	-9.09142
▁1/21	-9.09149
▁deviation	-9.0918
▁above	-9.09185
▁abnormal	-9.09187
▁margins	-9.09318
▁breastfeeding	-9.09448
▁gi	-9.09469
▁give	-9.09599
se	-9.09871
▁men	-9.09965
6.67%	-9.10041
▁250	-9.10107
▁cancers	-9.10153
idual	-9.10417
▁demonstrate	-9.10439
▁minim	-9.10512
earing	-9.10713
▁boost	-9.10782
▁compromise	-9.10915
▁wall	-9.11195
ty	-9.11379
paclitaxel	-9.11452
=	-9.11461
▁chemical	-9.11555
ld	-9.1165
▁value	-9.11791
▁vinorelbine	-9.12274
▁perforation	-9.1228
▁vaginal	-9.1237
▁ixabepilone	-9.12415
▁decision	-9.12415
▁spine	-9.12422
▁gel	-9.1251
▁20%	-9.12872
ray	-9.12933
f	-9.1315
▁poor	-9.13195
ight	-9.13398
▁diet	-9.13613
▁fractions	-9.13656
▁ab	-9.13747
▁infections	-9.13935
▁cervical	-9.14046
▁indicated	-9.14146
▁micro	-9.14252
▁systol	-9.14261
▁1/23	-9.14481
▁contain	-9.14515
▁diagnos	-9.14534
menopausal	-9.14595
▁rt	-9.14755
cns	-9.14932
▁transaminase	-9.14982
▁provide	-9.15105
▁barrier	-9.15185
▁reason	-9.15236
▁calcium	-9.15473
▁conventional	-9.15474
▁dexamethasone	-9.15474
▁four	-9.15475
▁recommended	-9.15482
▁qualify	-9.15546
reference	-9.15816
tr	-9.16395
▁report	-9.16405
dcis	-9.16551
▁vaccine	-9.16779
either	-9.16791
adenopathy	-9.16874
▁vers	-9.16906
▁neratinib	-9.17113
▁further	-9.17113
▁malabsorption	-9.17114
▁pertuzumab	-9.17192
▁reduction	-9.17197
▁ineligible	-9.17252
▁everolimus	-9.17343
▁females	-9.17665
▁tolerated	-9.17827
▁include	-9.17958
▁2/6	-9.18086
3%	-9.18176
for	-9.18468
99	-9.18733
▁lumbar	-9.18779
▁1/22	-9.18781
44	-9.18822
▁expression	-9.18839
▁obtained	-9.1888
10	-9.18892
▁mammogram	-9.18926
▁aspiration	-9.18952
▁oophorectomy	-9.19006
▁show	-9.19074
▁reported	-9.19093
▁mtd	-9.1946
olic	-9.19506
▁experienc	-9.19545
with	-9.19669
ient	-9.19992
▁methods	-9.2019
ology	-9.20477
▁staging	-9.20519
▁radiographic	-9.20557
▁cellulitis	-9.20628
▁cooperati	-9.20934
▁(16.6	-9.20993
▁weight	-9.21017
▁(2.2	-9.21115
▁auto	-9.21239
▁0/42	-9.21385
▁specific	-9.21578
except	-9.21629
▁ca	-9.21733
▁swallow	-9.22197
▁guidelines	-9.22214
▁etc	-9.22254
v	-9.22264
▁situations	-9.22335
tern	-9.22445
▁radiological	-9.22456
▁>/=	-9.22787
est	-9.22924
▁bed	-9.22974
▁lab	-9.22974
exist	-9.23423
equal	-9.23438
▁estimate	-9.23453
▁visit	-9.23465
▁tomography	-9.23953
▁muga	-9.24136
histochemistry	-9.24256
▁bisphosphonates	-9.24259
▁meeting	-9.24259
▁drains	-9.24285
▁1/40	-9.24321
▁intent	-9.24438
.45%)	-9.24992
sensitivity	-9.25443
▁13	-9.2568
▁dysphagia	-9.25738
▁raloxifene	-9.25738
▁proportion	-9.25738
▁vein	-9.25763
▁enrolled	-9.25793
▁placement	-9.25795
▁abstinence	-9.25829
▁(0.99	-9.25892
▁ultrasound	-9.25899
18	-9.26005
▁<=	-9.26109
2,	-9.26516
▁2+	-9.26566
the	-9.26805
ade	-9.27064
▁(2.3	-9.2736
▁gene	-9.275
qd	-9.27548
▁abscess	-9.27556
▁diathesis	-9.27558
600	-9.27598
▁multiple	-9.27637
id	-9.27715
▁stem	-9.27788
▁anthracyclines	-9.27989
q	-9.28107
▁tests	-9.28433
▁0/14	-9.28792
▁specimen	-9.28896
situ	-9.28916
▁session	-9.2893
▁(3.4	-9.29066
▁300	-9.29081
®	-9.29277
▁need	-9.29363
▁education	-9.29407
▁access	-9.29411
▁monotherapy	-9.29412
▁abnormality	-9.29439
▁sufficient	-9.29449
▁asymptomatic	-9.29556
▁4-	-9.29695
▁1)	-9.29762
/110	-9.30224
64	-9.30264
▁dlts	-9.30499
])	-9.30572
▁neutrophils	-9.31175
12	-9.31217
▁kidney	-9.31293
▁warfarin	-9.31294
▁absorption	-9.31323
varian	-9.31448
▁k	-9.31512
▁48	-9.31674
▁square	-9.31809
▁0/11	-9.31824
45%)	-9.32149
61	-9.32239
▁(2.9	-9.32344
▁started	-9.32394
▁mi	-9.32505
▁practice	-9.32762
immune	-9.32856
▁1/2	-9.33017
▁early	-9.33256
▁line	-9.33267
▁make	-9.33293
▁body	-9.33442
▁trans	-9.3347
▁six	-9.33506
▁70	-9.33545
▁0/49	-9.33553
1.11	-9.33596
▁estradiol	-9.33652
▁plan	-9.33681
0.00	-9.33788
▁20/10	-9.33814
preoperative	-9.33995
▁0/25	-9.34254
▁melanoma	-9.34451
▁select	-9.34563
ts	-9.34631
ile	-9.34917
▁(33.	-9.34945
▁discretion	-9.3518
▁histological	-9.35219
▁nature	-9.35266
▁ex	-9.35369
▁pleural	-9.3539
▁prevent	-9.35403
▁products	-9.35586
▁stomatitis	-9.35624
▁1/39	-9.35947
▁0/36	-9.3595
96	-9.36119
▁diameters	-9.36397
cal	-9.36914
muga	-9.36965
▁woman	-9.37176
▁experimental	-9.37178
▁unwilling	-9.37182
▁saline	-9.37204
▁censored	-9.37212
▁immediately	-9.37234
▁sunitinib	-9.37265
▁mental	-9.37328
▁independent	-9.37431
▁21/	-9.3748
▁triple	-9.37548
▁suffer	-9.37646
▁open	-9.37652
consecutive	-9.37663
▁(7.6	-9.37917
▁hematologic	-9.38036
▁0/37	-9.38219
▁sites	-9.3835
lo	-9.384
▁240	-9.38413
stage	-9.385
is	-9.38537
▁hypertensive	-9.38556
▁palpabl	-9.38572
▁mass	-9.38592
2/	-9.38806
weeks	-9.38806
▁anthracycline	-9.38823
less	-9.38923
▁stroke	-9.39217
▁ld	-9.39252
▁nod	-9.3933
▁abraxane	-9.39353
▁possible	-9.39383
ence	-9.39578
aemia	-9.40089
fsh	-9.40116
2.86%)	-9.40368
osis	-9.40435
ble	-9.40772
invasive	-9.40967
at	-9.41088
▁support	-9.41231
®)	-9.41254
▁swift	-9.41299
▁distant	-9.41303
▁elevat	-9.41305
▁assigned	-9.41335
▁continu	-9.41377
▁3.0	-9.41527
▁(4.8	-9.41632
ep	-9.41646
▁51	-9.41708
▁5-	-9.41716
▁edema	-9.41739
1/8	-9.4176
▁2/41	-9.41865
▁initiat	-9.42011
ate	-9.42229
▁2,	-9.42612
▁azd	-9.435
usual	-9.43513
▁cream	-9.43526
▁information	-9.43542
▁suspected	-9.43545
▁sexual	-9.43621
53	-9.43629
▁sub	-9.43641
▁(12.	-9.44463
0/50	-9.44471
▁enter	-9.44596
▁arteri	-9.45027
▁im	-9.45094
▁0/12	-9.45282
▁3-	-9.45405
▁me	-9.45529
▁flutter	-9.45601
▁emtansine	-9.45602
▁excipients	-9.45602
▁insert	-9.45607
▁trauma	-9.45618
▁hg	-9.45683
▁albumin	-9.45693
▁work	-9.45739
▁five	-9.46111
82	-9.46221
▁lob	-9.46321
▁appear	-9.46327
breast	-9.46341
*	-9.46457
orr	-9.46493
▁tc	-9.46508
▁125	-9.46543
▁1/15	-9.46907
▁remov	-9.47248
▁seizure	-9.47333
▁achiev	-9.47425
▁dis	-9.47468
▁1/42	-9.47477
iii	-9.47591
tric	-9.47614
▁"	-9.47617
infarction	-9.47699
▁difference	-9.47828
▁inducers	-9.47843
▁large	-9.479
▁35	-9.47942
▁0/15	-9.47965
▁sd	-9.47968
▁2/5	-9.47972
ext	-9.47985
▁clear	-9.48042
▁candidates	-9.48147
▁(1.45%)	-9.48364
▁regard	-9.48379
81	-9.48526
5%	-9.49043
9.0	-9.49154
▁epi	-9.49204
▁termin	-9.49416
▁affect	-9.49417
▁(5	-9.49526
▁research	-9.49892
.)	-9.49904
▁none	-9.49935
▁measurements	-9.50065
▁injury	-9.50088
▁concentration	-9.50101
▁blue	-9.50117
▁sex	-9.50152
▁amen	-9.50155
▁product	-9.50184
▁recovery	-9.50203
▁implanted	-9.50342
▁150	-9.50381
▁menstrua	-9.50389
ng	-9.50606
▁steroid	-9.50658
▁1-21	-9.5067
▁includes	-9.50868
▁soci	-9.51193
▁r	-9.51262
0)	-9.51543
▁malignant	-9.51628
400	-9.51915
▁drain	-9.52091
define	-9.52101
4)	-9.52209
▁45	-9.52277
▁component	-9.52328
▁abnormalities	-9.52424
▁(14.29%)	-9.52434
pulmonary	-9.52471
▁impair	-9.52539
sium	-9.52574
▁nab	-9.52577
▁oxide	-9.52592
▁eas	-9.52819
cause	-9.52843
▁109	-9.52982
▁gastri	-9.53402
"	-9.54084
9/	-9.54119
▁pi	-9.54134
▁72	-9.5417
fter	-9.54231
▁limb	-9.54308
▁requirement	-9.54361
▁ma	-9.54437
▁subcutaneous	-9.54662
×	-9.54795
▁double	-9.54799
▁manual	-9.54803
▁pancreatitis	-9.54804
▁depression	-9.54804
▁unresectable	-9.54811
▁problems	-9.54861
other	-9.54962
▁curatively	-9.5505
healing	-9.55074
▁pn	-9.55102
hiv	-9.55277
▁enzyme	-9.55472
▁(3.5	-9.5548
▁1/13	-9.55547
▁contraceptives	-9.5564
▁2/3	-9.55958
▁direct	-9.56129
▁histologic	-9.56995
▁review	-9.57038
cell	-9.57059
▁2/7	-9.57159
▁inflammation	-9.57234
▁application	-9.57243
▁dosage	-9.57261
▁resected	-9.57289
▁transfusion	-9.57348
▁prevention	-9.57354
589	-9.57364
▁regular	-9.57403
▁neurologic	-9.57425
2+	-9.57459
▁qt	-9.57592
▁flap	-9.57693
▁0/23	-9.5777
▁cyto	-9.5787
ase	-9.57995
▁surgically	-9.58187
▁fat	-9.58197
▁minor	-9.58593
sd	-9.58663
▁1/34	-9.58731
ign	-9.58795
31	-9.58959
1.23	-9.59153
94	-9.59371
▁0/53	-9.5943
cm	-9.59463
▁(5.2	-9.59585
▁expansion	-9.59734
▁yoga	-9.59734
▁deterioration	-9.59735
4%	-9.59739
▁oxygen	-9.59961
▁lymphedema	-9.59979
sgot	-9.60073
▁capsules	-9.60101
▁(1.14	-9.60102
▁1/12	-9.60309
58	-9.60317
▁bet	-9.60489
▁lb	-9.60781
▁3,	-9.60864
3,	-9.61339
▁side	-9.61479
▁26	-9.61505
diast	-9.61518
▁catheter	-9.61759
▁bp	-9.62045
▁al	-9.62047
▁gilbert	-9.62298
form	-9.62358
▁compounds	-9.62394
▁strong	-9.62417
▁famil	-9.62525
▁equivalent	-9.62533
▁amplification	-9.62535
▁topically	-9.62599
ctcae	-9.62672
▁implants	-9.62728
weekly	-9.62803
▁gastro	-9.62853
▁oedema	-9.62917
regional	-9.63003
50	-9.63124
wee	-9.63276
rmal	-9.63386
▁ac	-9.63801
still	-9.64134
▁respiratory	-9.64315
▁1+	-9.64472
contain	-9.64802
feeding	-9.64815
_	-9.64929
▁hematopoietic	-9.64929
▁friday	-9.64929
▁half	-9.64933
▁oncologist	-9.64934
▁judgment	-9.64935
▁filgrastim	-9.64952
▁portion	-9.64992
▁brca	-9.65168
▁vorinostat	-9.65172
▁pericarditis	-9.65244
▁(5.8	-9.65249
▁allow	-9.65284
▁thrombocytopeni	-9.65386
▁achieve	-9.65394
▁(4.7	-9.65513
▁rpfna	-9.65533
enteritis	-9.65561
▁scans	-9.65813
▁consist	-9.66272
of	-9.66385
me	-9.66436
▁120	-9.66498
-90	-9.66525
▁cooperat	-9.66576
treatment	-9.66592
▁granulocyte	-9.66763
13	-9.66813
▁[1]1/2	-9.66903
▁attack	-9.67106
▁tam	-9.6714
▁sample	-9.67153
continued	-9.67284
▁feeding	-9.67353
▁live	-9.6746
▁compare	-9.67605
▁stomach	-9.67632
▁exposure	-9.67632
▁detail	-9.67632
▁ultrasonography	-9.67644
▁lactation	-9.67645
▁surgeon	-9.67653
csf	-9.67656
▁assessments	-9.67663
adjuvant	-9.67712
▁dementia	-9.67755
▁ffdm	-9.67877
▁pazopanib	-9.6788
▁immunosuppressi	-9.67958
▁800	-9.6797
▁epide	-9.68044
hour	-9.68195
os	-9.68236
mri	-9.68378
▁excision	-9.68387
▁short	-9.68448
▁10^	-9.68449
▁super	-9.6853
tis	-9.68538
73	-9.68891
▁specify	-9.68906
▁30-	-9.69205
lerated	-9.69328
▁develop	-9.6959
▁identifi	-9.69611
▁discontinu	-9.69616
▁bisphosphonate	-9.69925
▁milligram	-9.69926
▁38	-9.69974
its	-9.70196
▁(4	-9.70336
▁alopecia	-9.7041
▁avastin	-9.7041
▁digital	-9.7041
▁fistula	-9.7041
▁psychological	-9.7041
▁length	-9.70412
▁hyperplasia	-9.70418
▁occurre	-9.7042
▁dye	-9.7047
▁aero	-9.70499
specific	-9.70507
▁fast	-9.70567
▁entero	-9.70607
▁acce	-9.70708
15	-9.70823
▁affected	-9.70897
▁nk	-9.70906
risk	-9.70917
▁25%	-9.71212
1.4	-9.71336
▁0,	-9.7173
▁1/53	-9.71926
socia	-9.72146
▁prescribe	-9.72173
▁nci	-9.72307
▁longe	-9.72428
▁*0/24	-9.72682
21	-9.72716
▁moderate	-9.73267
▁quality	-9.73267
exclud	-9.73299
ern	-9.733
▁progressed	-9.73318
▁maint	-9.73332
1/30	-9.73394
▁overexpression	-9.73412
explain	-9.73435
cardiac	-9.73467
▁pills	-9.73493
1)	-9.73548
grade	-9.73563
▁(10.0	-9.73588
▁radio	-9.73679
herceptin	-9.73821
respiratory	-9.7394
85	-9.74497
30	-9.74874
▁140	-9.74898
dlt	-9.74944
▁person	-9.75068
▁0/30	-9.75097
▁immun	-9.75205
side	-9.75263
et	-9.75356
to	-9.75416
▁implant	-9.75529
▁(25.	-9.75532
ral	-9.75581
illary	-9.75671
▁2/9	-9.7603
ized	-9.76036
▁composit	-9.76097
▁triptorelin	-9.76208
▁interpret	-9.76208
7389	-9.76216
▁place	-9.76255
719	-9.76256
▁antibiotics	-9.7629
▁mmhg	-9.7634
▁oesophag	-9.76371
▁venous	-9.76442
▁complications	-9.76478
▁web	-9.76566
cumulati	-9.76612
▁sensory	-9.76624
▁cbr	-9.76733
▁samples	-9.7674
▁appointment	-9.7675
▁1-	-9.76811
▁escalation	-9.76901
operable	-9.76989
▁vaccines	-9.77085
minute	-9.7715
metastatic	-9.77418
▁ischemi	-9.77457
kar	-9.77637
rt	-9.77661
ch	-9.77662
ame	-9.77866
ura	-9.7788
▁2)	-9.7806
▁origin	-9.78327
▁indicat	-9.78387
inal	-9.78395
▁ctcae	-9.78798
sib	-9.78813
▁prohibit	-9.78931
▁mellitus	-9.79239
▁pembrolizumab	-9.79239
▁rheumato	-9.79239
▁osteoporosis	-9.79239
▁itraconazole	-9.79247
23	-9.79247
dm	-9.79273
▁biopsies	-9.79367
▁nipple	-9.79372
▁electr	-9.79406
▁techniques	-9.79442
▁bi	-9.79465
▁dimension	-9.79506
molecular	-9.79533
▁preced	-9.79774
▁(7.1	-9.79807
▁prese	-9.79853
dermal	-9.79957
elet	-9.8004
,000/	-9.80119
▁units	-9.80122
▁apart	-9.80461
33%	-9.80469
14	-9.8052
ac	-9.80728
▁le	-9.80831
▁reduce	-9.81015
<	-9.81163
▁east	-9.81184
▁mamm	-9.81467
▁ces	-9.816
▁thrombo	-9.81636
ohistochemistry	-9.81806
▁corticosteroid	-9.81878
▁fec	-9.82054
▁2-	-9.82121
▁na	-9.82243
▁abemaciclib	-9.82364
▁committee	-9.82364
▁addictive	-9.82364
▁supraclavicular	-9.82364
▁menses	-9.82365
▁visual	-9.82365
▁herbal	-9.82371
▁(30	-9.82384
within	-9.82413
cycle	-9.82432
▁drainage	-9.82449
▁modulator	-9.82468
▁mucositis	-9.82582
▁3,000/	-9.82625
▁delayed	-9.82634
▁choice	-9.82645
▁suppression	-9.82672
▁longer	-9.8278
ma	-9.82796
-102	-9.82825
▁ben	-9.82862
tinel	-9.82881
▁colon	-9.8302
▁55	-9.83104
▁sessions	-9.8318
▁sh	-9.83224
inflammatory	-9.83252
hypertensive	-9.83391
▁neuro	-9.83474
▁cross	-9.83567
ical	-9.83579
▁relative	-9.83694
ope	-9.83769
▁(1.	-9.84015
▁mucosa	-9.84181
▁%	-9.84237
▁(15.	-9.84411
port	-9.84455
re	-9.84487
▁(2.	-9.84703
contraindication	-9.84886
▁follows	-9.84936
mening	-9.84956
▁read	-9.85009
▁mutation	-9.8505
▁0/163	-9.85231
▁intolera	-9.85446
▁prolong	-9.8555
▁routine	-9.85589
▁arthritis	-9.85594
▁volume	-9.85602
▁center	-9.85603
▁pathology	-9.85611
ol	-9.85626
▁better	-9.85627
▁valvular	-9.85636
▁fail	-9.85811
28	-9.85823
mcl	-9.85843
▁institute	-9.85845
▁food	-9.85909
ea	-9.86007
▁omega	-9.86033
pt	-9.86074
▁hip	-9.86109
▁cremophor	-9.86211
▁su	-9.86269
▁groups	-9.86296
▁compar	-9.86396
threaten	-9.8649
colitis	-9.86574
malignant	-9.86722
toxic	-9.86736
national	-9.87211
▁sensitivity	-9.8726
co	-9.87505
▁bc	-9.87702
▁neo	-9.87762
▁port	-9.87809
▁operable	-9.88044
▁measures	-9.88077
▁candidate	-9.88437
ul	-9.88559
▁assay	-9.88562
▁relapse	-9.88593
▁addition	-9.88677
▁healing	-9.88776
asthenia	-9.88828
▁follicle	-9.88923
▁methotrexate	-9.88923
▁entire	-9.88923
▁proteinuria	-9.88925
▁section	-9.88926
▁classification	-9.88929
▁metabolic	-9.8893
▁patch	-9.8897
▁determination	-9.88972
▁postoperative	-9.89023
▁compute	-9.89103
▁supplements	-9.89124
▁inadequate	-9.89167
▁hand	-9.89223
▁ago	-9.89229
▁accurate	-9.89244
fici	-9.89246
▁head	-9.89296
▁hysterectomy	-9.89381
if	-9.89452
▁affecting	-9.89508
-3	-9.8953
68	-9.89632
▁capsule	-9.89638
▁1/35	-9.8969
▁sen	-9.89853
▁whi	-9.89998
phase	-9.90057
▁factors	-9.90089
score	-9.90116
nyha	-9.90121
▁0/13	-9.902
100.0	-9.90347
▁peg	-9.90434
hera	-9.90455
tinib	-9.90499
ptom	-9.9051
▁ti	-9.90525
ot	-9.90975
10^9	-9.9144
▁0/41	-9.91531
▁2/48	-9.91595
arn	-9.91672
▁pro	-9.9183
▁lymphatic	-9.91889
low	-9.91905
▁0/48	-9.92237
▁bradycardia	-9.92371
▁cataract	-9.92371
▁daratumumab	-9.92371
▁encephalopathy	-9.92371
▁population	-9.92371
▁shock	-9.92371
▁citrate	-9.92374
▁administer	-9.92378
u	-9.92435
▁increas	-9.92471
▁self	-9.92516
▁zubrod	-9.9252
▁optional	-9.92529
▁attribut	-9.92535
lytic	-9.92841
nt	-9.92981
▁et	-9.93013
▁wbc	-9.93027
▁el	-9.9303
▁ulcerati	-9.93091
▁involved	-9.93092
-2/	-9.93205
▁pa	-9.93338
pgr	-9.93379
ther	-9.93462
▁motor	-9.93606
fluorouracil	-9.9366
▁so	-9.93701
minate	-9.939
▁11	-9.94242
89	-9.94251
83	-9.94333
▁radiologic	-9.94382
▁fine	-9.94549
▁magnet	-9.94651
ult	-9.9498
▁peri	-9.9507
nci	-9.95168
▁2/1	-9.95213
com	-9.95416
▁vaccination	-9.95441
▁extensi	-9.95613
▁delay	-9.95637
▁record	-9.95644
abdominal	-9.95677
36	-9.95736
▁confirm	-9.95818
▁sync	-9.95823
▁cerebro	-9.9588
▁kaplan	-9.95942
▁technologist	-9.95942
▁sudden	-9.95942
▁compris	-9.95943
▁crisis	-9.95944
▁stopped	-9.9596
cisional	-9.95976
▁glutamic	-9.9598
▁loss	-9.9598
▁index	-9.95985
▁water	-9.9599
▁order	-9.96006
▁delivered	-9.96006
▁collect	-9.96021
▁pacemaker	-9.96098
▁third	-9.96111
▁anticoagulation	-9.96116
▁involv	-9.96117
8.33	-9.96138
▁embolism	-9.96255
bi	-9.96321
▁(2.6	-9.96365
▁1-14	-9.96407
▁approved	-9.96597
▁3-4	-9.96642
▁full	-9.96692
▁glucose	-9.96758
▁beam	-9.96771
da	-9.96842
▁qtc	-9.96887
confirmed	-9.96957
▁mim	-9.97087
▁correct	-9.97216
sgpt	-9.97408
▁valv	-9.97424
ontraindications	-9.97461
▁immune	-9.9755
ps	-9.97741
40	-9.97765
▁(1.02	-9.97981
ag	-9.98097
▁assess	-9.98109
▁0/22	-9.98122
▁1500/	-9.98199
over	-9.98238
▁21/2	-9.98355
ier	-9.98466
run	-9.98687
▁(0.04	-9.98871
▁suffere	-9.98899
limit	-9.99074
tal	-9.99079
.0%	-9.99398
▁stop	-9.99408
-12	-9.99486
▁cholecystitis	-9.99646
▁answer	-9.99646
▁mouth	-9.99646
▁example	-9.99656
▁vision	-9.9967
▁prove	-9.99692
▁1/49	-9.99742
▁influenza	-9.99802
▁degree	-9.99805
▁1/163	-9.99976
lack	-10.0009
▁mbc	-10.0012
cohort	-10.0013
06	-10.0013
▁mtor	-10.0016
receptor	-10.0019
▁cut	-10.0025
1/26	-10.0044
▁harm	-10.0046
▁inr	-10.0052
▁spin	-10.008
creatinine	-10.0089
▁3.6	-10.0112
echo	-10.0124
1-	-10.0129
▁gr	-10.0139
▁label	-10.0143
▁(9.	-10.0144
▁1/19	-10.0156
▁taxanes	-10.0157
▁>1	-10.0178
▁dual	-10.0191
▁enteritis	-10.0249
▁2/14	-10.0258
28-	-10.0266
nal	-10.0268
▁palp	-10.0284
▁syn	-10.029
▁transplant	-10.0291
▁endpoint	-10.0298
▁speak	-10.0307
toxicity	-10.0335
▁formulat	-10.0343
▁purp	-10.0348
-0332991	-10.0349
▁cognitive	-10.0349
▁ditosylate	-10.0349
▁endoxifen	-10.0349
▁flaxseed	-10.0349
▁individual	-10.0349
▁tomosynthesis	-10.0349
▁celecoxib	-10.0349
▁insufficiency	-10.0349
▁successful	-10.035
▁conduction	-10.0351
▁home	-10.0353
▁render	-10.0356
▁atypia	-10.0357
▁adult	-10.0361
▁along	-10.0365
▁pegfilgrastim	-10.0365
▁asthma	-10.0366
▁unilateral	-10.0366
stenosis	-10.0368
▁qtcf	-10.0369
▁leukocytes	-10.037
1.1)	-10.0379
▁discontinue	-10.0381
▁iiib	-10.0383
▁sever	-10.0406
▁1/28	-10.0408
▁st	-10.0418
▁worsen	-10.0448
ajcc	-10.0457
▁thereafter	-10.0466
▁biological	-10.0488
45	-10.0488
▁proteins	-10.0499
▁hr	-10.05
such	-10.0519
▁sur	-10.0524
▁10%	-10.0528
▁(>	-10.0536
ue	-10.0543
28.57	-10.0549
▁ius	-10.0556
/50	-10.0557
icular	-10.0564
▁2.7	-10.0581
▁0.5	-10.0582
tion	-10.0607
24	-10.0618
▁classifi	-10.0624
eg	-10.0637
2%	-10.0641
▁3/5	-10.0647
minat	-10.0652
▁prs	-10.0654
▁exist	-10.0657
▁36	-10.0664
line	-10.0668
soci	-10.0673
▁restrict	-10.0715
study	-10.072
▁echo	-10.0735
▁fitbit	-10.0749
▁question	-10.0749
▁hypotension	-10.0749
▁facility	-10.075
▁extrasystoles	-10.075
▁hypo	-10.0751
▁0/75	-10.0751
▁spiral	-10.0755
umab	-10.0758
▁scale	-10.0762
overexpressing	-10.0773
certain	-10.0779
▁ai	-10.0788
ood	-10.079
▁needed	-10.0815
▁remo	-10.0855
hematologic	-10.0897
▁ki	-10.09
▁prescrib	-10.0905
▁mo	-10.091
▁mammographic	-10.0916
250	-10.0939
neo	-10.094
pbi	-10.0941
▁9.0	-10.0942
emed	-10.096
59	-10.1001
49	-10.1016
vided	-10.1026
▁19	-10.1035
▁(27.	-10.1076
▁diseases	-10.1098
▁perform	-10.1146
▁reserve	-10.1157
▁rates	-10.1163
▁safe	-10.1165
▁duloxetine	-10.1166
▁heparin	-10.1166
▁polysorbate	-10.1166
approx	-10.1166
▁pneumonitis	-10.1166
▁prophylactic	-10.1166
▁activities	-10.1166
▁applicable	-10.1166
▁intensity	-10.1166
▁route	-10.1166
▁cutoff	-10.1166
▁sterilization	-10.1166
▁supine	-10.1167
nephr	-10.1167
▁monday	-10.1167
▁proper	-10.1168
▁international	-10.1168
▁antigen	-10.117
otope	-10.117
▁exceed	-10.1171
▁mild	-10.118
▁40.5	-10.1182
▁weak	-10.1183
▁consistent	-10.1183
▁lupus	-10.1183
tx	-10.1188
ide	-10.1194
▁sets	-10.1198
▁60%	-10.1199
▁nonmelanoma	-10.1201
▁dbt	-10.1204
immunohistochemi	-10.1204
▁6-	-10.1204
it	-10.1208
▁option	-10.121
▁whe	-10.1215
▁vg	-10.1216
▁continuously	-10.1217
▁american	-10.1223
▁1/224	-10.124
ectomy	-10.1241
▁average	-10.1252
ron	-10.1252
chemotherapy	-10.1253
hose	-10.1267
retro	-10.1287
emission	-10.1313
▁meal	-10.1321
▁3/39	-10.1333
▁1/36	-10.1348
▁infiltrat	-10.1348
▁(18.	-10.1393
84	-10.1396
tle	-10.1399
▁sgpt	-10.1428
de	-10.1429
▁fluorouracil	-10.144
ortic	-10.1441
▁exclud	-10.1447
▁1/38	-10.1456
▁injections	-10.1466
▁0/40	-10.1467
▁>1.5	-10.1475
▁2/37	-10.1504
-6	-10.1529
▁gm	-10.1538
▁substance	-10.1552
▁34	-10.1554
54	-10.156
fec	-10.1567
▁alcohol	-10.1581
tnm	-10.1582
creased	-10.1591
no	-10.1597
▁accident	-10.1601
▁palbociclib	-10.1601
▁relevant	-10.1601
plasia	-10.1602
▁duct	-10.1602
2006	-10.1604
ful	-10.1605
▁interest	-10.1609
▁deficiency	-10.1611
▁state	-10.1613
▁elevation	-10.1614
▁inhale	-10.1622
▁0/33	-10.1637
92	-10.1646
complete	-10.1658
▁back	-10.166
▁alp	-10.1669
▁exclude	-10.168
tain	-10.1691
ening	-10.1695
▁plans	-10.1707
▁flu	-10.1717
▁immunosuppress	-10.1719
▁reasons	-10.1731
▁beta	-10.1737
▁personal	-10.1775
▁even	-10.1783
approximate	-10.1821
/39	-10.1824
chf	-10.1831
he	-10.1865
▁-6	-10.1866
ache	-10.1894
adre	-10.1902
3)	-10.1907
estrogen	-10.1908
mont	-10.1927
▁dee	-10.1947
▁bio	-10.1957
▁1-3	-10.1984
▁aes	-10.2016
▁20/	-10.2017
▁cap	-10.2017
▁avoid	-10.202
▁finding	-10.2021
▁52	-10.2034
▁bacter	-10.2038
▁earlie	-10.2046
ebr	-10.2049
▁like	-10.205
▁cirrhosis	-10.2055
▁discomfort	-10.2055
▁niraparib	-10.2055
▁recieve	-10.2055
▁gamma	-10.2055
▁spanish	-10.2055
▁therapist	-10.2055
▁edition	-10.2055
▁muscle	-10.2055
▁adherence	-10.2056
▁confusion	-10.2056
▁antibody	-10.2057
▁laser	-10.2057
▁supplementation	-10.2058
▁detect	-10.2059
▁1/57	-10.207
▁acquired	-10.2074
▁sorafenib	-10.2074
▁releas	-10.2075
▁some	-10.2076
▁detected	-10.2077
▁expect	-10.2079
▁subcutaneously	-10.2083
▁trials	-10.2088
▁iu	-10.2096
cular	-10.2096
▁occurs	-10.2097
▁induction	-10.2097
▁findings	-10.2104
▁alive	-10.2106
▁associate	-10.2106
ative	-10.2112
▁match	-10.2117
▁accessible	-10.2117
46	-10.212
▁medi	-10.2127
▁film	-10.215
active	-10.2162
bp	-10.2165
▁term	-10.2168
▁4.0	-10.2202
controlled	-10.221
oral	-10.221
0.0	-10.2236
▁bmd	-10.2247
stimulat	-10.2267
chron	-10.2276
neoadjuvant	-10.228
157	-10.2285
93	-10.2289
▁ovari	-10.229
onic	-10.2306
▁(60	-10.2308
▁<2	-10.2309
▁(5.4	-10.2318
▁stimulat	-10.232
▁investigators	-10.232
+)	-10.2327
▁1-2	-10.2358
▁meter	-10.2359
▁abs	-10.2362
▁vir	-10.2411
and	-10.2418
1.1	-10.2458
▁21/10	-10.2459
▁eye	-10.2486
▁2/11	-10.2488
▁(10	-10.2488
▁lymphaden	-10.25
▁giv	-10.2511
▁evaluate	-10.2515
-14	-10.252
▁appendi	-10.2522
▁alter	-10.2526
▁brachytherapy	-10.2531
▁interstiti	-10.2531
▁plasma	-10.2531
▁sterile	-10.2532
▁breath	-10.2532
▁drink	-10.2535
▁obtain	-10.2536
▁antitumor	-10.2548
63	-10.255
▁formulation	-10.255
▁energy	-10.2551
▁cockcroft	-10.2551
▁thyroid	-10.2555
▁accepted	-10.2556
▁4/3	-10.2561
▁rules	-10.2561
▁associat	-10.2565
▁cy	-10.2572
▁15-	-10.2573
▁questionnaires	-10.2576
0/110	-10.258
▁ulceration	-10.2594
▁bl	-10.2605
▁milli	-10.2607
▁abdomen	-10.2619
▁accept	-10.2622
ural	-10.2644
echocardiography	-10.2653
▁formula	-10.2667
z	-10.2694
▁sk	-10.2701
granulocyte	-10.2705
▁solution	-10.2706
755	-10.272
▁carcinomas	-10.2722
meters	-10.2723
clinical	-10.2736
16	-10.2743
baseline	-10.2743
▁0/38	-10.2749
first	-10.275
▁medically	-10.2766
▁vi	-10.2773
90	-10.2774
year	-10.2775
steroid	-10.2777
▁la	-10.2778
organ	-10.2794
life	-10.2795
vitamin	-10.2797
specify	-10.2801
resolved	-10.2819
▁judge	-10.282
1/66	-10.285
▁schedul	-10.2866
take	-10.2877
▁vari	-10.2895
ature	-10.2899
red	-10.2913
bid	-10.2917
▁fes	-10.2919
],	-10.292
ci	-10.2931
▁random	-10.2937
genital	-10.2946
epto	-10.2952
cran	-10.2954
pon	-10.2954
01	-10.2957
▁dec	-10.2969
▁marker	-10.2989
▁screen	-10.2991
▁0.25	-10.2995
▁bun	-10.2998
dfi	-10.3009
▁margin	-10.3016
79	-10.3019
duoden	-10.3027
▁amenorrhe	-10.3028
ting	-10.3029
▁carbon	-10.303
▁anticonvulsants	-10.3031
▁cisplatin	-10.3031
▁hypoxia	-10.3031
▁imiquimod	-10.3031
▁lymphoseek	-10.3031
▁malaise	-10.3031
▁neulasta	-10.3031
▁unequivocal	-10.3031
▁bupivacaine	-10.3031
▁segment	-10.3031
▁positivity	-10.3032
▁rash	-10.3032
▁acetate	-10.3032
▁cpm	-10.3033
▁cbt	-10.3033
▁predicted	-10.3034
▁unlike	-10.3034
▁aspirin	-10.3034
▁remission	-10.3035
▁basin	-10.3037
▁immediate	-10.3038
▁issues	-10.3039
▁(37.	-10.304
▁collection	-10.3041
xed	-10.3041
▁plastic	-10.3045
list	-10.3045
▁grams	-10.3045
▁palliati	-10.3046
▁ocular	-10.3048
vir	-10.3048
▁prone	-10.3053
▁posit	-10.3054
▁preferred	-10.3054
mal	-10.3055
urred	-10.3063
▁pharmacologic	-10.3065
▁altered	-10.3067
▁supportive	-10.3069
▁taxotere	-10.3076
▁oxaloacet	-10.3076
▁2/21	-10.3078
ef	-10.3081
▁consult	-10.3085
▁nor	-10.3086
sis	-10.3089
▁(7.3	-10.3091
450	-10.31
ety	-10.3101
3.	-10.3102
▁coumadin	-10.3112
▁become	-10.3114
▁refus	-10.3123
▁2-3	-10.3124
▁ecg	-10.3124
▁dry	-10.3125
ily	-10.3135
37.5	-10.314
any	-10.3141
areola	-10.3147
▁fix	-10.3151
▁lead	-10.3153
▁matrix	-10.3154
▁(0.51	-10.3168
▁behavior	-10.3195
▁(100	-10.3213
▁ver	-10.3219
1/74	-10.3223
▁>=2	-10.3235
exclusion	-10.325
107	-10.3258
▁wash	-10.3264
covered	-10.327
ered	-10.3293
placebo	-10.3294
▁tool	-10.3304
▁liv	-10.3317
▁minute	-10.3338
conserv	-10.3339
lcis	-10.3342
be	-10.3346
▁22	-10.3355
▁42	-10.3361
ant	-10.3362
/26	-10.3371
cross	-10.3374
mci	-10.3404
▁(5.7	-10.3405
bri	-10.341
▁89	-10.3423
attenuated	-10.3437
part	-10.3443
▁tid	-10.3447
▁u	-10.3448
▁8.5	-10.3467
▁(<	-10.347
▁extra	-10.3473
▁(9.6	-10.3475
▁modifie	-10.3475
▁smalle	-10.348
▁2/10	-10.3485
▁questionnaire	-10.3509
▁neoplasm	-10.3511
▁complication	-10.3511
▁49	-10.3517
▁inflate	-10.3519
▁pass	-10.3524
)-	-10.3554
▁(25	-10.3554
▁absorptiometry	-10.3558
▁profile	-10.3558
▁histology	-10.3558
▁hypercalcemia	-10.3558
▁conju	-10.3558
▁combin	-10.356
▁severity	-10.356
▁transplantation	-10.3563
pharyng	-10.3565
▁ischaemia	-10.3568
▁curve	-10.3569
▁computer	-10.3573
▁inject	-10.3577
cutaneous	-10.3578
▁muscul	-10.3587
▁monitoring	-10.3592
chemotherapeutic	-10.3601
▁sponsor	-10.3601
▁(17.	-10.3607
▁-1	-10.3615
▁progressing	-10.3618
▁later	-10.3619
▁position	-10.3626
▁records	-10.3633
▁bran	-10.3641
▁1%	-10.365
though	-10.3679
ies	-10.3688
▁guide	-10.3699
4,	-10.3704
▁*1/4	-10.3708
one	-10.3719
9)	-10.3722
▁3/11	-10.3728
▁scann	-10.3742
auc	-10.3742
pe	-10.375
1-3	-10.3756
▁0/57	-10.3769
▁mother	-10.3772
daily	-10.3777
time	-10.3779
▁died	-10.3786
▁[1]1/	-10.3806
ventric	-10.3807
▁wk	-10.3807
schedule	-10.3847
child	-10.3856
▁145	-10.3869
▁hepato	-10.3879
appropriate	-10.388
per	-10.3881
mtd	-10.3887
bmd	-10.3896
tolerance	-10.3915
lt	-10.3915
off	-10.3918
▁15.	-10.3921
▁5/	-10.3924
defin	-10.3926
▁program	-10.397
▁opti	-10.397
-75	-10.3972
^	-10.401
maint	-10.4045
▁member	-10.4062
▁0.	-10.4064
▁radiologist	-10.4064
▁partner	-10.4065
peptide	-10.4065
solution	-10.4074
surgery	-10.4079
▁suspect	-10.4083
▁endometri	-10.411
▁pyruv	-10.4113
▁caregiver	-10.4113
▁cyclosporine	-10.4113
▁efficacy	-10.4113
▁frequency	-10.4113
▁goserelin	-10.4113
▁survey	-10.4113
▁bolus	-10.4113
▁sodium	-10.4113
▁seroma	-10.4113
▁dioxide	-10.4113
▁extremity	-10.4114
▁flashes	-10.4114
▁radiosurgery	-10.4114
▁haemo	-10.4115
▁uterus	-10.4115
▁dyspn	-10.4115
▁examined	-10.4115
-024	-10.4116
▁observation	-10.4117
▁hsp	-10.4117
locoregional	-10.4119
-627	-10.412
▁prolongation	-10.412
totoxic	-10.4124
▁amenorrhea	-10.4129
▁counseling	-10.4131
▁(250	-10.4133
.33	-10.4133
▁temsirolimus	-10.4136
▁conducted	-10.4137
zation	-10.4138
▁text	-10.414
▁20/28	-10.4143
▁suitable	-10.4147
▁ga	-10.4153
oea	-10.4156
▁partners	-10.4163
▁nurse	-10.4165
▁0/34	-10.4166
ur	-10.4168
▁developed	-10.4178
aromasin	-10.4183
emia	-10.4189
▁cytoxan	-10.4189
opathy	-10.4192
▁56	-10.4192
-122	-10.4201
▁keto	-10.4207
▁endo	-10.422
868	-10.4223
▁*1/25	-10.423
▁components	-10.4234
occlusion	-10.4238
▁seizures	-10.4239
1/29	-10.4243
▁escalat	-10.4246
▁2/16	-10.4262
▁blind	-10.4269
tyle	-10.4279
nding	-10.4312
ok	-10.4317
ically	-10.4318
▁auc	-10.4322
▁males	-10.4333
kp	-10.4336
thrombus	-10.4356
▁(6.2	-10.4366
1/2	-10.4371
▁84	-10.438
tact	-10.4399
▁3/6	-10.4406
meter	-10.4414
▁reliabl	-10.4414
bcs	-10.4418
see	-10.4425
▁ear	-10.4453
ia	-10.4464
releasing	-10.4468
▁lo	-10.4474
▁begins	-10.4475
▁2/2	-10.448
▁14/	-10.448
▁(45.	-10.4482
▁lytic	-10.449
mol	-10.452
ap	-10.453
▁2/4	-10.453
)/	-10.454
granulocyt	-10.4568
▁(5.1	-10.4572
onal	-10.4577
▁1/45	-10.4595
gi	-10.4605
▁20/9	-10.4613
▁(3.7	-10.4645
fu	-10.4647
▁symptom	-10.4654
▁roo	-10.4662
▁concurrently	-10.4665
ai	-10.4677
▁24)	-10.4696
▁0/29	-10.47
▁aneurysm	-10.4702
▁cabozantinib	-10.4702
▁diffuse	-10.4702
▁permanent	-10.4702
▁pharmacokinetic	-10.4702
▁randomisation	-10.4703
prior	-10.4703
▁abuse	-10.4703
▁fluid	-10.4703
▁indication	-10.4704
▁represent	-10.4705
▁respectively	-10.4708
▁mandatory	-10.4712
▁erbb	-10.4712
▁mamma	-10.4731
ility	-10.4733
▁shi	-10.4737
▁persisten	-10.4743
▁irradiated	-10.4748
▁urin	-10.4752
▁bladder	-10.4754
▁excisional	-10.4755
▁substances	-10.4769
▁retin	-10.477
▁ni	-10.4776
▁750	-10.4782
▁infectious	-10.4783
▁175	-10.4787
tnbc	-10.4793
▁discuss	-10.4806
05	-10.4831
56	-10.4842
>	-10.4849
thoracic	-10.486
patient	-10.4861
▁fem	-10.4879
▁contraindicate	-10.4879
aring	-10.4887
mi	-10.4899
tc	-10.4921
▁optic	-10.4923
▁survivors	-10.4938
ted	-10.4957
▁29	-10.4966
▁39	-10.4978
▁close	-10.4979
ization	-10.4994
▁demonstrat	-10.5002
▁chf	-10.5016
▁psycho	-10.5022
100,000	-10.5028
which	-10.5045
1/24	-10.5048
1/9	-10.5053
▁tri	-10.5055
serum	-10.5055
▁ad	-10.5059
/57	-10.5063
unless	-10.5084
load	-10.5084
compliance	-10.5085
excision	-10.5097
metastasis	-10.51
assist	-10.5102
sepsis	-10.5104
motor	-10.5111
capsule	-10.5124
tri	-10.5136
ylat	-10.5161
na	-10.517
▁(26.	-10.5171
days	-10.5177
su	-10.518
▁ms	-10.5182
▁3/7	-10.5184
ticipation	-10.5186
label	-10.5214
▁dip	-10.522
-1	-10.5228
▁*1/7	-10.5229
cord	-10.5236
ngest	-10.5238
ti	-10.5254
▁myelo	-10.5259
tls	-10.5262
22	-10.5264
▁leukocyt	-10.5273
▁reminder	-10.5277
▁consider	-10.5278
▁map	-10.5283
39	-10.5284
▁osteo	-10.5287
ified	-10.5293
▁clinic	-10.5301
▁monitor	-10.5308
▁refer	-10.532
▁atypi	-10.5321
▁thromboemboli	-10.5326
▁antibodies	-10.5327
▁appetite	-10.5327
▁breakfast	-10.5327
▁chinese	-10.5327
▁irinotecan	-10.5327
▁ketoconazole	-10.5327
▁potassium	-10.5327
▁prednisone	-10.5327
▁resource	-10.5327
▁anxiety	-10.5327
▁haematemesis	-10.5327
▁physiotherapy	-10.5327
▁micrograms	-10.5327
edtmp	-10.5327
▁cytology	-10.5327
▁dermatitis	-10.5327
▁erythematosus	-10.5327
▁morning	-10.5327
▁prin	-10.5328
▁blocker	-10.533
-130	-10.533
▁localization	-10.5331
.0	-10.5332
▁basis	-10.5336
spontaneous	-10.534
▁ov	-10.5343
▁chemopreventi	-10.5343
▁termination	-10.5344
▁parameters	-10.5344
▁randomly	-10.5346
▁ethnic	-10.5346
▁conduct	-10.5347
▁peritone	-10.5348
▁purposes	-10.5351
▁intended	-10.5352
▁missing	-10.5352
silate	-10.5357
▁<1.5	-10.536
▁condom	-10.5362
▁ineligibility	-10.5366
▁axis	-10.5367
▁soy	-10.5371
▁definite	-10.5374
eli	-10.5374
▁reminders	-10.5376
▁amplified	-10.5382
▁4/48	-10.5385
▁share	-10.5387
▁prohibited	-10.5392
▁pill	-10.5394
rivudine	-10.5398
▁invasion	-10.5398
▁1/127	-10.5398
▁relapsed	-10.5401
▁egfr	-10.5412
▁neu	-10.5415
▁manage	-10.5417
▁removed	-10.5418
▁3/41	-10.5428
▁3/21	-10.5432
▁*0/2	-10.5455
▁dia	-10.546
199	-10.5466
▁(8.	-10.5467
ms	-10.5475
▁atri	-10.5489
▁fna	-10.5497
▁dxa	-10.5516
▁transaminases	-10.5524
mediate	-10.5528
▁inform	-10.553
▁6.0	-10.5531
▁wocbp	-10.5532
▁oil	-10.5535
▁3)	-10.5539
gy	-10.554
cbc	-10.5544
▁(23.	-10.555
0.5	-10.5569
▁0/18	-10.5573
▁fin	-10.5578
▁1/16	-10.5583
▁radical	-10.5604
▁z	-10.5626
▁exceptions	-10.5649
▁stratifi	-10.5665
▁indicate	-10.5666
methyl	-10.5673
▁3/	-10.5686
0,	-10.5699
▁(10.	-10.5708
bone	-10.5714
▁kg	-10.5754
+/	-10.5767
▁-5	-10.5793
▁describe	-10.5799
▁monoc	-10.5802
▁haemato	-10.5811
do	-10.5821
ible	-10.5822
▁-3	-10.5823
▁measur	-10.5829
▁*0/7	-10.584
ery	-10.584
va	-10.5841
gen	-10.5842
▁>=1	-10.5856
▁recall	-10.5863
▁80.	-10.5863
pet	-10.5874
▁pl	-10.5886
▁41	-10.5892
▁sgot	-10.5907
▁selecti	-10.5925
▁effect	-10.5929
▁carrie	-10.5929
▁prov	-10.5945
ease	-10.5951
51	-10.5952
715	-10.5958
oa	-10.5961
▁17	-10.5965
▁bronchi	-10.5968
etal	-10.5972
▁receptors	-10.5977
▁withdraw	-10.598
57	-10.5982
lines	-10.5983
▁obstructi	-10.5988
▁cixutumumab	-10.5993
▁infraclavicular	-10.5993
▁diplopia	-10.5993
▁juice	-10.5993
▁hospitalization	-10.5993
▁assistance	-10.5995
▁mela	-10.5995
32	-10.5996
▁how	-10.5998
▁unl	-10.6
▁infants	-10.6002
▁75,000/	-10.6006
▁untreated	-10.6007
▁earlier	-10.6007
▁oestrogen	-10.6013
▁akt	-10.6017
ox	-10.6021
▁840	-10.6026
▁tea	-10.604
▁1,000	-10.6042
sed	-10.6052
▁special	-10.6058
-2-	-10.6075
▁(400	-10.6084
▁sections	-10.6087
un	-10.6088
▁57	-10.6092
ental	-10.6107
▁ke	-10.6109
110	-10.6155
▁dfs	-10.6169
cy	-10.6178
vary	-10.6185
▁vis	-10.6186
ying	-10.6199
ngesti	-10.6202
▁intervals	-10.6212
▁fi	-10.6222
inr	-10.6225
▁(34.	-10.6245
▁lln	-10.625
article	-10.6255
pro	-10.6258
▁(12	-10.6262
▁terminat	-10.6267
▁reduc	-10.6277
34	-10.6278
90%	-10.6285
logic	-10.6285
note	-10.6293
ge	-10.6298
der	-10.6301
▁0/19	-10.6342
▁radiolog	-10.6344
1.0	-10.6345
11	-10.6354
▁hypersensi	-10.6358
▁24-	-10.6359
rial	-10.6372
1.0)	-10.638
▁ae	-10.638
▁occur	-10.6393
by	-10.6394
greater	-10.6396
eopl	-10.6418
sk	-10.6428
cin	-10.6444
-18	-10.6451
0).	-10.6452
recurrence	-10.6456
month	-10.6459
agent	-10.647
wocbp	-10.6476
blockers	-10.648
cycles	-10.6485
▁alo	-10.6512
vel	-10.6546
stable	-10.655
sub	-10.6565
etin	-10.6576
neoplas	-10.6582
▁supplement	-10.6583
▁>2	-10.6604
cation	-10.6632
03	-10.664
▁glucocorticoid	-10.6653
▁pm	-10.6653
▁lymphangiti	-10.6658
▁technique	-10.6659
▁suppl	-10.666
▁ev	-10.6662
▁sole	-10.6665
fluoropyrimidine	-10.6671
ii	-10.6678
▁spermicide	-10.6691
▁lip	-10.6691
▁ischaemi	-10.6694
▁glutam	-10.6695
▁rule	-10.6705
▁adriamycin	-10.6707
epileptic	-10.6707
▁amiodarone	-10.6707
▁enzalutamide	-10.6707
▁erythromycin	-10.6707
▁establish	-10.6707
▁lidocaine	-10.6707
▁ruxolitinib	-10.6707
▁scleroderma	-10.6707
▁sclerosis	-10.6707
▁source	-10.6707
▁tuberculosis	-10.6707
▁upfront	-10.6707
▁implement	-10.6707
▁focus	-10.6708
▁insulin	-10.6708
algia	-10.6708
▁model	-10.6708
▁prothrombin	-10.6708
▁interrupt	-10.6708
▁microscopic	-10.6708
▁hypokalemia	-10.6708
▁vasculitis	-10.6708
▁seropositivity	-10.6708
▁parenteral	-10.6708
▁urinalysis	-10.6708
▁hyperglycemia	-10.6708
▁alimentation	-10.6708
sulfan	-10.6708
▁<2.2)	-10.6709
▁unidimensional	-10.6709
▁necessary	-10.671
▁process	-10.671
▁contact	-10.671
▁fetus	-10.671
▁</=	-10.6711
rink	-10.6711
▁exact	-10.6712
ruit	-10.6713
▁sick	-10.6713
▁migraines	-10.6713
▁proceed	-10.6715
▁encourage	-10.6716
▁extension	-10.6717
uration	-10.6718
▁hernia	-10.6722
▁46.5	-10.6724
▁asked	-10.6725
▁natural	-10.6728
lastin	-10.673
capacity	-10.6736
▁cured	-10.6736
▁dyspepsia	-10.6737
▁mitomycin	-10.6737
▁cimetidine	-10.6737
▁perflutren	-10.6737
▁fully	-10.6737
▁anticoagulants	-10.6738
▁*0/4	-10.6743
▁thrombop	-10.6744
▁location	-10.6747
ena	-10.675
▁reader	-10.6776
▁illnesses	-10.6779
▁fields	-10.6782
▁vert	-10.6784
")	-10.6788
▁rad	-10.6791
▁situation	-10.6793
▁diaphragm	-10.6806
▁lymphocyte	-10.6809
heal	-10.6816
sc	-10.6821
▁fu	-10.6826
▁fall	-10.6848
▁myl	-10.6848
▁cn	-10.6857
▁alternative	-10.6859
17	-10.6872
800	-10.6883
▁(20.8	-10.6888
▁visits	-10.6915
▁flt	-10.6927
stabilize	-10.6927
▁2/224	-10.6932
mp	-10.6945
▁(4.6	-10.6946
▁(6.0	-10.6947
ls	-10.6954
▁tls	-10.6956
▁just	-10.6964
27.2	-10.6971
▁[2]0/4	-10.6994
▁(1.01	-10.6994
75	-10.7002
face	-10.7002
77	-10.7003
ills	-10.7004
▁<1	-10.7008
adrenal	-10.7028
uter	-10.7029
▁mucos	-10.7032
▁tub	-10.7032
▁synth	-10.7039
erious	-10.7056
▁2/40	-10.7065
▁[1]1/6	-10.7099
▁(80	-10.71
▁>60	-10.7103
▁sat	-10.7106
▁coll	-10.7109
treated	-10.712
▁23/2	-10.7123
▁calori	-10.7129
▁("	-10.7131
▁plann	-10.7135
▁randomis	-10.7139
▁160	-10.7145
▁cont	-10.7149
4.7	-10.7176
▁physicians	-10.7187
stic	-10.719
ab	-10.7196
partial	-10.7213
▁:	-10.722
mastectomy	-10.723
▁region	-10.7232
determined	-10.7238
▁16.	-10.7249
ational	-10.7249
dxa	-10.7254
▁(7.2	-10.7257
▁mld	-10.7259
▁31	-10.726
▁pgr	-10.7267
palpabl	-10.7277
deriv	-10.7285
care	-10.7301
▁mening	-10.7312
tl	-10.7313
oedema	-10.7319
spit	-10.7321
▁mono	-10.7324
eni	-10.7336
ga	-10.734
1/3	-10.734
▁(75	-10.7342
/85	-10.7342
1.5	-10.7381
▁2/12	-10.7382
av	-10.7394
ected	-10.7398
▁ser	-10.7399
itation	-10.7401
7)	-10.7415
nide	-10.743
▁surviv	-10.7431
▁2000	-10.7439
▁153	-10.7444
▁anaphylaxis	-10.7477
▁degarelix	-10.7477
▁threshold	-10.7477
▁tipifarnib	-10.7477
▁eosin	-10.7477
▁joint	-10.7477
▁occasion	-10.7477
▁mammosite	-10.7477
▁1200	-10.7477
▁enhancement	-10.7477
▁parenchymal	-10.7479
▁incidence	-10.748
saracatinib	-10.748
▁cardiotoxicity	-10.748
▁urea	-10.7482
▁1/218	-10.7484
▁ovaries	-10.7488
rexia	-10.7489
▁analogues	-10.7491
▁persist	-10.7492
▁design	-10.7495
▁restriction	-10.7496
rs	-10.7508
▁paraffin	-10.7508
▁biotherapy	-10.751
nd	-10.7515
▁modulat	-10.7522
▁complicat	-10.7528
▁labc	-10.7529
▁lymphangitis	-10.7532
▁decide	-10.7536
▁cytological	-10.7541
62	-10.7543
kel	-10.7545
▁set	-10.7552
▁<7	-10.7564
▁air	-10.7566
0.	-10.758
olid	-10.7586
▁effusions	-10.7597
1/49	-10.7603
▁complet	-10.7609
primary	-10.7636
▁ris	-10.765
▁late	-10.7689
▁3/9	-10.769
72	-10.7691
-10	-10.7714
6)	-10.7715
ae	-10.7718
tension	-10.772
enzyme	-10.774
rin	-10.7743
lated	-10.7752
001	-10.7757
▁functions	-10.777
si	-10.7771
▁breasts	-10.7777
total	-10.7782
▁[1]1/1	-10.7784
-3-	-10.7785
▁reports	-10.7788
▁wounds	-10.78
▁ho	-10.7801
▁judg	-10.7813
▁opportunit	-10.7815
▁(7	-10.7826
3.0	-10.7833
95	-10.7839
▁intr	-10.7845
centric	-10.785
od	-10.7854
im	-10.7857
ven	-10.7858
35	-10.7865
ie	-10.7884
▁areas	-10.7897
▁produce	-10.7903
2.5	-10.7917
tivity	-10.7926
denos	-10.7927
80	-10.7969
uch	-10.7969
eam	-10.7984
where	-10.7999
expressing	-10.8006
elapsed	-10.8009
vol	-10.8026
rolac	-10.8039
sation	-10.804
▁settings	-10.8045
central	-10.8046
progressive	-10.8047
bre	-10.8053
▁conc	-10.8054
ischemia	-10.807
contrast	-10.807
▁iso	-10.8074
hcv	-10.8074
0/6	-10.8075
0.6	-10.8077
hbv	-10.8077
blind	-10.8078
esis	-10.8087
flt	-10.8091
called	-10.8093
orally	-10.8102
▁abc	-10.8111
wa	-10.8112
1/22	-10.8112
systol	-10.8121
inter	-10.8122
investigators	-10.8128
competen	-10.8133
▁underw	-10.8136
▁1.2	-10.8143
matrix	-10.8146
▁cover	-10.8161
edit	-10.8176
▁tr	-10.8209
once	-10.8211
sion	-10.8223
bility	-10.823
▁methyl	-10.8239
▁hemat	-10.8245
▁37	-10.8251
▁comparison	-10.8253
▁material	-10.8259
▁rapamycin	-10.8259
ptt	-10.8268
-15	-10.8271
▁tolerate	-10.8275
▁[1]	-10.8275
▁>9	-10.8277
nner	-10.8281
▁os	-10.8284
▁contra	-10.8297
▁46	-10.8302
▁hyponatr	-10.8306
▁success	-10.8307
▁latina	-10.831
▁dizziness	-10.831
mercaptopurine	-10.831
tryptophan	-10.831
¬	-10.831
▁alisertib	-10.831
▁anaphylactic	-10.831
▁anastomosis	-10.831
▁approval	-10.831
▁bosutinib	-10.831
▁clarithromycin	-10.831
▁crohn	-10.831
▁darolutamide	-10.831
▁diabetic	-10.831
▁gadolinium	-10.831
▁infestations	-10.831
▁ipatasertib	-10.831
▁jeopardize	-10.831
▁physiotouch	-10.831
▁pilocarpine	-10.831
▁prompts	-10.831
▁prophylaxis	-10.831
▁siennaxp	-10.831
▁thiotepa	-10.831
▁triglyceride	-10.831
▁workshop	-10.831
▁operation	-10.831
▁qualitatively	-10.831
▁feasibility	-10.831
▁suggest	-10.831
▁jaw	-10.831
▁staff	-10.831
▁neck	-10.831
▁internet	-10.831
▁alfa	-10.831
▁negativity	-10.8311
▁carcinomatosis	-10.8311
▁diverticulitis	-10.8311
▁cdk	-10.8311
▁modifiers	-10.8311
▁resistance	-10.8311
▁website	-10.8311
▁anesthe	-10.8311
▁surgi	-10.8311
▁meningitis	-10.8312
▁definition	-10.8312
▁confound	-10.8312
▁express	-10.8313
filled	-10.8314
only	-10.8314
hyponatremia	-10.8315
mend	-10.8316
ftv	-10.8316
▁alteration	-10.8317
▁carry	-10.8318
65	-10.8318
▁criterion	-10.8321
quart	-10.8322
ran	-10.8323
▁disability	-10.8324
▁3.75	-10.8324
▁communicate	-10.8325
▁->	-10.8325
▁near	-10.8325
▁consum	-10.8325
▁professionals	-10.8325
terior	-10.8326
▁shorter	-10.8327
▁lymphoma	-10.8328
▁sali	-10.8328
▁rtu	-10.8329
▁lists	-10.8334
▁0-1+	-10.8335
serms	-10.8336
▁massage	-10.8338
▁infus	-10.8339
▁maintain	-10.8341
retch	-10.8343
▁volunteers	-10.8343
▁(13.	-10.8344
▁luteinizing	-10.8344
ntx	-10.8344
▁9/	-10.8348
▁wait	-10.8349
pac	-10.8353
▁categor	-10.8358
▁black	-10.836
▁cerebr	-10.8361
▁occured	-10.8362
▁irf	-10.8366
▁regions	-10.8371
lipid	-10.8372
lactic	-10.8374
▁menopause	-10.8381
oh	-10.8382
▁extend	-10.8383
▁added	-10.8383
▁palm	-10.8383
bor	-10.8384
▁genotype	-10.8385
▁calcitriol	-10.8385
▁119	-10.8386
3/24	-10.839
▁suicide	-10.8392
▁(8.1	-10.8393
▁55%	-10.8395
▁consultation	-10.8399
▁(11.7	-10.8407
rium	-10.841
▁sama	-10.8414
ocardiogram	-10.8418
▁msec	-10.8421
nia	-10.8423
▁kinase	-10.8425
▁multifocal	-10.8426
▁deriv	-10.8428
▁1/75	-10.8434
ined	-10.8437
▁interco	-10.844
▁1-28.	-10.8448
▁il	-10.8448
▁refra	-10.8449
2-3	-10.845
▁depend	-10.8453
actic	-10.8455
types	-10.8456
▁coli	-10.8459
uro	-10.8459
▁hospital	-10.8461
▁ptt	-10.8464
▁develops	-10.8466
▁1-1	-10.8467
▁respons	-10.8467
▁3/163	-10.8474
ure	-10.8478
▁allergi	-10.8481
▁pld	-10.8482
▁3/48	-10.8482
ius	-10.8483
▁scpr	-10.8483
▁limbs	-10.8489
▁rec	-10.849
▁5/3	-10.8495
▁cha	-10.8497
▁rapid	-10.8498
▁ven	-10.8499
▁bar	-10.8501
▁reserv	-10.8503
dependent	-10.8505
om	-10.8511
▁adjusted	-10.8512
▁ttp	-10.8515
▁45%	-10.8526
▁3.	-10.8526
▁20/3	-10.8527
lln	-10.8528
agen	-10.8529
▁(14.6	-10.8532
▁100,000	-10.8535
stal	-10.8546
1,	-10.8551
43	-10.8551
▁evaluat	-10.856
found	-10.8561
genic	-10.8561
▁2/34	-10.8563
▁2/24	-10.8564
▁ef	-10.8574
▁iiic	-10.859
▁infe	-10.8591
▁iiia	-10.8594
zr	-10.8605
lob	-10.8614
hgb	-10.862
parox	-10.8623
▁146	-10.8623
▁[1]0/3	-10.8626
king	-10.8648
▁(5-	-10.8662
▁tru	-10.8666
▁(11.	-10.8667
asal	-10.8672
=3	-10.8679
▁8.0	-10.8685
▁4-1	-10.8699
▁intoleran	-10.8709
oderm	-10.8709
ption	-10.8712
-2.0	-10.8713
act	-10.872
▁+/-	-10.8725
▁23	-10.8741
▁(7.7	-10.8744
ual	-10.8748
amin	-10.8762
ory	-10.877
making	-10.8777
em	-10.8792
▁se	-10.8793
aes	-10.8796
▁main	-10.8796
4.29%)	-10.8801
ter	-10.8806
.1)	-10.8816
7/50	-10.882
inten	-10.8823
▁clot	-10.8832
▁81	-10.8844
▁8.	-10.8845
▁organs	-10.8846
led	-10.8853
▁uni	-10.8864
▁activate	-10.8877
▁investigate	-10.8877
ism	-10.8877
4.0	-10.8878
▁uteri	-10.8881
▁iia	-10.8881
15.3	-10.8912
this	-10.8916
▁ano	-10.8923
▁pat	-10.8925
letrozole	-10.8927
ied	-10.8932
capecitabine	-10.8935
▁59	-10.8942
▁(7.	-10.8944
▁greate	-10.8946
▁>100	-10.8947
high	-10.895
▁16/	-10.8952
▁0-	-10.8953
4.0)	-10.8971
surgical	-10.8972
nda	-10.8972
cardiovascular	-10.8976
ductal	-10.8981
regard	-10.8984
hcg	-10.8988
cyp	-10.8989
soc	-10.8996
mission	-10.9003
ttp	-10.9003
dfs	-10.9031
▁13/	-10.9081
50%	-10.9082
▁emo	-10.9088
▁cor	-10.9102
▁(8.3	-10.9115
▁1/18	-10.9135
▁sid	-10.9135
ities	-10.9145
▁pul	-10.9148
▁allel	-10.9156
let	-10.9157
uteri	-10.9181
dlts	-10.9183
▁vagina	-10.9202
▁fas	-10.9211
▁excess	-10.9213
▁john	-10.9219
necrosis	-10.9219
refractory	-10.9219
▁japanese	-10.9219
▁modalities	-10.9219
▁simultaneous	-10.9219
▁simvastatin	-10.9219
▁testosterone	-10.9219
▁consequences	-10.9219
▁enlarge	-10.9219
▁contractions	-10.9219
▁amount	-10.9219
▁employ	-10.9219
▁rifampin	-10.9219
▁identical	-10.9219
▁doxil	-10.9219
▁integr	-10.922
▁fibrosis	-10.922
▁haemorrhoid	-10.922
▁studied	-10.9222
▁conclusion	-10.9222
▁satisfact	-10.9227
▁gl	-10.9228
▁3/25	-10.9237
▁(9	-10.9237
az	-10.924
▁wort	-10.9242
▁<5	-10.9249
▁22/	-10.9258
▁unexp	-10.9259
▁tak	-10.9261
▁come	-10.9265
▁lost	-10.9267
▁esophag	-10.9272
▁420	-10.9275
▁gender	-10.928
▁infect	-10.929
▁gnrh	-10.9301
1/71	-10.9301
▁cetuximab	-10.9301
▁cish	-10.9303
▁10.0	-10.9311
101	-10.932
▁11.1	-10.9333
▁nerve	-10.936
▁hyperse	-10.9368
▁angiograph	-10.9373
▁ret	-10.938
▁tpcr	-10.938
▁conform	-10.9381
▁ka	-10.9396
▁(2.8	-10.9403
▁awa	-10.9411
▁und	-10.9419
▁sta	-10.9423
stere	-10.943
▁85	-10.9434
▁af	-10.9434
ail	-10.9436
48.0	-10.9449
▁gu	-10.9454
▁>10	-10.9469
▁he	-10.9469
structed	-10.9496
▁17.	-10.951
02	-10.9514
oma	-10.9523
▁intraoperative	-10.9536
86	-10.9546
▁raci	-10.9548
dense	-10.9551
emic	-10.9551
rays	-10.9553
bular	-10.9569
path	-10.9581
ium	-10.9592
▁transform	-10.9592
▁103	-10.9597
must	-10.9602
473	-10.9605
urn	-10.9609
▁7-1	-10.9611
▁reconstruct	-10.9612
▁resolved	-10.9627
▁lungs	-10.9631
.00	-10.9632
erall	-10.9648
wish	-10.965
med	-10.966
-20	-10.9672
cial	-10.9673
gu	-10.9673
.44	-10.9697
ra	-10.9709
0.54	-10.9715
ating	-10.9745
500	-10.9752
hone	-10.9752
▁5.4	-10.9753
who	-10.9764
011248	-10.9771
▁infusions	-10.9772
▁minu	-10.9779
tumor	-10.9781
ugh	-10.9803
ably	-10.9817
grap	-10.9817
▁br	-10.984
term	-10.984
▁hear	-10.9844
▁[2]1/	-10.9858
yethyl	-10.9862
▁anticipat	-10.9882
4.8	-10.9888
dded	-10.9889
upper	-10.9898
terone	-10.9899
ture	-10.9901
rida	-10.9901
node	-10.9903
▁4/1	-10.9904
vomiting	-10.9915
▁devices	-10.9916
liver	-10.992
tamoxifen	-10.9935
fi	-10.9936
▁3/3	-10.994
▁pe	-10.9949
but	-10.995
unstable	-10.995
diarrhea	-10.9952
read	-10.9955
▁hemoly	-10.9963
abso	-10.9965
nsclc	-10.9972
weight	-10.9976
▁21/7	-10.9978
angina	-10.9978
stomatitis	-10.998
estradiol	-10.9981
embolism	-10.9982
test	-10.9983
rpfna	-10.9985
adjusted	-10.9985
glucose	-10.9987
qtc	-10.9988
escalation	-10.9988
new	-10.999
short	-10.9992
▁uter	-10.9993
escalat	-10.9994
rapid	-10.9997
▁5/4	-11.0004
ned	-11.0004
▁statin	-11.0014
3;	-11.0017
full	-11.0031
doxorubicin	-11.0032
▁mini	-11.0035
hla	-11.0042
▁supra	-11.0062
▁(36.	-11.0064
▁7)	-11.0066
▁recur	-11.0067
ecg	-11.0074
cl	-11.0076
film	-11.0079
▁separate	-11.0083
▁5/2	-11.0083
cipa	-11.0104
poly	-11.0113
hrt	-11.0113
▁3/8	-11.0119
▁ph	-11.0132
/48	-11.0134
▁12/6	-11.0136
arrhyth	-11.0141
▁(6.00	-11.0153
▁cytokine	-11.0165
▁spermicid	-11.0165
▁pelvi	-11.0167
phor	-11.017
▁interact	-11.0178
▁cmr	-11.0186
▁enroll	-11.0191
▁neutropeni	-11.0198
▁consen	-11.02
eu	-11.0207
/224	-11.021
▁abstinen	-11.0212
induc	-11.0215
▁arthr	-11.0218
▁authori	-11.0218
▁hypokal	-11.0219
fluoro	-11.0219
β	-11.0219
▁cholesterol	-11.0219
012662	-11.0219
indoximod	-11.0219
microliter	-11.0219
▁ataxia	-11.0219
▁cholecalciferol	-11.0219
▁delavirdine	-11.0219
▁ginseng	-11.0219
▁heartburn	-11.0219
▁hemoptysis	-11.0219
▁liposom	-11.0219
▁relationship	-11.0219
▁rigors	-11.0219
▁ritonavir	-11.0219
▁sarcoidosis	-11.0219
▁sestamibi	-11.0219
▁switch	-11.0219
▁talazoparib	-11.0219
▁telephone	-11.0219
▁tigatuzumab	-11.0219
▁vinflunine	-11.0219
▁copies	-11.0219
▁tolerability	-11.0219
▁distilled	-11.0219
▁episode	-11.0219
▁etiology	-11.0219
▁doctor	-11.0219
▁check	-11.0219
▁indinavir	-11.0219
▁metabolism	-11.0219
▁ultra	-11.0219
▁colloid	-11.0219
▁metabolizers	-11.0219
▁genomic	-11.0219
▁assignment	-11.0219
▁unicentric	-11.0219
▁13-24	-11.022
▁pectoral	-11.022
▁intramuscular	-11.022
▁categories	-11.022
▁thromboembolism	-11.022
▁subtypes	-11.022
▁exhibit	-11.022
▁neoplasia	-11.0221
▁valid	-11.0221
hipaa	-11.0221
▁interview	-11.0221
-111	-11.0222
▁analogs	-11.0223
▁decline	-11.0223
▁occurence	-11.0223
▁interna	-11.0223
▁milliseconds	-11.0227
▁injectable	-11.023
▁taping	-11.023
▁sterilized	-11.0231
▁desired	-11.0233
▁(20.5	-11.0233
▁80-100	-11.0233
am	-11.0234
▁separately	-11.0235
▁adeno	-11.0236
zil	-11.0237
▁nsaids	-11.0238
▁nav	-11.0239
▁idio	-11.0244
4736	-11.0245
nction	-11.0245
▁consideration	-11.0246
deoxy	-11.025
▁leukocyte	-11.0251
▁we	-11.0257
▁gland	-11.0257
▁electrolyte	-11.026
▁dehydro	-11.0266
▁(2.68%)	-11.0268
▁asian	-11.0269
0/90	-11.0269
▁ensure	-11.0275
▁impe	-11.0279
▁archived	-11.0279
▁5,	-11.0283
icrobiologically	-11.0286
▁(+/-	-11.0291
▁leuk	-11.0295
▁(6.9	-11.0297
78	-11.0298
transferase	-11.0298
▁herpe	-11.0299
▁alpha	-11.0304
▁32	-11.0305
▁collective	-11.0307
▁foot	-11.0316
ax	-11.0318
▁hb	-11.0321
▁eyes	-11.0324
▁(13.4	-11.0326
▁attend	-11.0327
▁condoms	-11.0341
▁1-5	-11.0345
▁8.6	-11.0346
▁tac	-11.0346
▁83	-11.0352
▁transm	-11.0353
dlco	-11.0356
phil	-11.0356
▁sclerotic	-11.0358
▁thorax	-11.036
spar	-11.0361
▁vaccinations	-11.0366
▁pem	-11.0369
▁5/11	-11.037
▁assays	-11.0377
▁(9.3	-11.0385
▁recruit	-11.0389
▁2/20	-11.0389
▁-4	-11.0392
▁geographical	-11.0394
ba	-11.0396
1000-12	-11.0399
2/30	-11.0404
-82	-11.0405
▁5.5	-11.0406
▁kilogram	-11.041
embe	-11.0419
▁iud	-11.0425
▁(33	-11.0426
▁flow	-11.0429
ene	-11.0438
▁appendic	-11.0439
▁bu	-11.044
▁anal	-11.0454
▁69	-11.0468
▁sod	-11.0472
tral	-11.0476
▁country	-11.0479
▁(14.	-11.0481
mld	-11.0496
▁(32.	-11.0496
▁hydro	-11.0503
▁hbv	-11.0509
acetyl	-11.0513
▁0.2	-11.0515
▁1/86	-11.0518
▁ye	-11.0519
▁estimates	-11.0521
8)	-11.0526
▁8/10	-11.0541
▁modifi	-11.0547
▁his	-11.0572
▁3/40	-11.0573
▁63	-11.0573
ick	-11.0577
gest	-11.0579
▁7/1	-11.0585
▁(42.	-11.0585
▁programme	-11.0589
▁occurr	-11.059
▁6/40	-11.0591
▁concentrate	-11.0593
▁pu	-11.0594
▁peptide	-11.0596
-100	-11.0602
ension	-11.0604
▁7/5	-11.0626
3.0)	-11.0628
▁>5	-11.063
ust	-11.0631
▁pt	-11.0636
taining	-11.064
▁facilitate	-11.0644
▁22/10	-11.0646
▁8/5	-11.0647
▁spo	-11.0657
pped	-11.0677
▁examinations	-11.0684
▁64	-11.07
br	-11.0709
▁perforat	-11.0732
▁(15.6	-11.0734
oxifene	-11.0739
▁elapse	-11.074
▁tape	-11.0763
▁lac	-11.0793
stor	-11.0796
▁comorbid	-11.0799
55	-11.0807
▁list	-11.0816
▁4,	-11.0821
▁ranges	-11.0822
served	-11.0823
▁my	-11.0832
▁3.2	-11.0835
▁den	-11.0851
▁0/28	-11.0863
years	-11.0873
8.0	-11.0878
hi	-11.0887
con	-11.089
▁susp	-11.089
dle	-11.0897
oir	-11.0898
▁mr	-11.0923
▁nyha	-11.0926
tracer	-11.0926
dimensional	-11.0928
▁hc	-11.0935
0/24	-11.0942
vers	-11.0949
▁(31.	-11.096
openia	-11.0979
prove	-11.0982
09	-11.0984
▁5/25	-11.0991
▁ge	-11.0994
/127	-11.1005
▁(5.3	-11.1009
▁6/4	-11.1009
▁comple	-11.101
▁granulocyt	-11.1017
▁cur	-11.1018
▁[1]1/11	-11.102
120	-11.1023
omer	-11.1044
▁ar	-11.1045
▁worse	-11.1051
olimus	-11.1066
fna	-11.1067
▁(0.79	-11.1073
▁8/2	-11.1074
alanine	-11.1085
lithi	-11.1089
alternative	-11.1096
-2)	-11.1101
▁ta	-11.1105
so	-11.111
-5	-11.1116
▁3/19	-11.1132
2)-	-11.1133
6.5	-11.1153
▁adenopathy	-11.1158
sus	-11.1168
▁1-28	-11.1176
▁nutri	-11.1183
▁recei	-11.1196
▁withdr	-11.12
fat	-11.1204
▁alk	-11.1215
▁16.7	-11.1244
touch	-11.1247
intraoperatively	-11.1267
▁print	-11.1268
▁vestibul	-11.1282
▁induce	-11.1284
li	-11.1284
▁3/12	-11.1298
▁dosimetr	-11.1317
▁possib	-11.1329
capsul	-11.1329
▁caelyx	-11.133
▁prejudice	-11.133
▁tangent	-11.133
▁overnight	-11.133
▁automatic	-11.1331
▁polycy	-11.1331
▁slnb	-11.1331
▁overlap	-11.1332
ower	-11.1333
rome	-11.1336
▁tx	-11.1339
▁[1]0/1	-11.134
▁write	-11.1348
imum	-11.1365
fasn	-11.1366
▁15)	-11.1368
▁7.4	-11.1368
▁agonists	-11.137
▁omeprazole	-11.1375
▁trametinib	-11.1376
▁ctx	-11.1377
▁conservation	-11.1383
▁diary	-11.1384
▁preference	-11.1384
▁slides	-11.1385
ngeal	-11.1399
hin	-11.1405
▁biopsie	-11.1408
▁6/5	-11.1409
j	-11.1415
/30	-11.1423
▁them	-11.1424
▁zometa	-11.1432
▁radiologists	-11.1435
arm	-11.1436
▁(26.7	-11.1441
▁markers	-11.1443
▁96	-11.145
za	-11.1471
7%	-11.1478
aids	-11.1478
imq	-11.1494
▁lymphatics	-11.1501
aimrt	-11.1503
.6%	-11.1513
▁>3	-11.1528
▁poly	-11.1532
nop	-11.1536
71	-11.1551
▁likel	-11.1556
100	-11.1557
47	-11.1566
gation	-11.157
▁step	-11.1571
tha	-11.1572
▁li	-11.1582
▁4/6	-11.1594
]).	-11.1597
▁3/4	-11.1607
▁cyst	-11.1615
normality	-11.1621
▁evaluations	-11.1621
▁pleur	-11.1628
rates	-11.1634
▁often	-11.1666
genase	-11.1686
▁sp	-11.1689
ster	-11.1693
▁(5.5	-11.17
rile	-11.1704
▁27/	-11.1712
▁allogen	-11.1713
▁bas	-11.1715
1%	-11.172
▁50%.	-11.1723
ctal	-11.1738
▁[3]0/	-11.1739
▁focal	-11.1744
▁occu	-11.1749
▁1.7	-11.1749
vira	-11.1753
▁180	-11.1798
▁hi	-11.1803
▁blockers	-11.1809
▁13/7	-11.1809
▁ended	-11.1825
▁lcis	-11.1828
ian	-11.1836
▁chemo	-11.1836
▁54	-11.1837
cytoch	-11.1848
istal	-11.1859
▁wear	-11.1878
▁15/3	-11.1893
▁ou	-11.1893
▁μ	-11.1918
▁em	-11.1925
▁0/39	-11.1931
▁heal	-11.1934
▁1.1.	-11.1953
dy	-11.1954
onide	-11.1957
el	-11.1966
▁70%	-11.1976
▁ps	-11.1981
pk	-11.1982
minotransferase	-11.2005
▁hyperbilirubin	-11.2012
▁(11.5	-11.2017
▁par	-11.2028
▁smok	-11.2036
▁(7.5	-11.2044
.2)	-11.2044
sh	-11.2044
response	-11.2061
▁causes	-11.2074
chemical	-11.2074
▁46/1	-11.2077
▁(40	-11.2081
hr	-11.2093
ew	-11.2099
lar	-11.2101
hormone	-11.2118
▁[3]1/	-11.2118
▁(3+	-11.212
▁ra	-11.2122
▁point	-11.2126
ifocal	-11.2128
2.	-11.2134
ren	-11.2148
▁(8.7	-11.2151
▁1/280	-11.2159
following	-11.2159
▁colla	-11.2165
▁27	-11.2167
19	-11.217
▁(0	-11.2172
0.25	-11.2172
bc	-11.2185
administered	-11.219
bmi	-11.22
uncontrolled	-11.2205
▁nucle	-11.2207
subjects	-11.2212
shi	-11.2216
▁electron	-11.2218
2002	-11.2218
radiotherapy	-11.2229
0/	-11.2236
▁strat	-11.2238
▁separat	-11.225
before	-11.2252
lapatinib	-11.2255
▁aspir	-11.2255
4/5	-11.2263
▁(38.	-11.2267
la	-11.2268
specified	-11.227
fication	-11.2273
▁(4.4	-11.2276
biologic	-11.228
recall	-11.2282
▁2/75	-11.2285
10.2	-11.2286
course	-11.2287
exemestane	-11.2291
docetaxel	-11.2291
-9	-11.2299
view	-11.2299
wbrt	-11.23
ovascular	-11.2302
detection	-11.2307
chronic	-11.2308
bleeding	-11.2308
inhibitor	-11.2318
name	-11.2318
lactating	-11.2319
chest	-11.232
emergent	-11.2321
etic	-11.2324
▁oncolog	-11.2324
0/48	-11.2328
square	-11.2328
serm	-11.2329
reconstruction	-11.233
safety	-11.2331
virus	-11.2333
triple	-11.2339
biliary	-11.2339
gonadotrop	-11.234
▁thorac	-11.2341
recurrent	-11.2342
appointment	-11.2342
kilogram	-11.2343
approved	-11.2344
abdomen	-11.2344
direct	-11.2345
omit	-11.2347
vegf	-11.2347
indicate	-11.2349
antagonist	-11.235
average	-11.2351
component	-11.2352
soft	-11.2352
wbc	-11.2352
cap	-11.2353
fever	-11.236
aza	-11.2361
scpr	-11.2361
harm	-11.2361
flow	-11.2363
▁organiz	-11.2367
5)	-11.2368
▁prem	-11.2371
▁2/30	-11.2373
100,000/	-11.2374
▁intern	-11.2395
anticipat	-11.2402
▁83.	-11.2423
base	-11.2425
lv	-11.2425
pto	-11.2434
200	-11.2453
▁suicid	-11.2455
.23	-11.2457
▁2/23	-11.2464
▁weigh	-11.2474
iud	-11.2476
▁compa	-11.249
filtration	-11.2491
radiological	-11.2493
>1	-11.2507
lbe	-11.2521
0-3	-11.2525
▁allograft	-11.2526
▁0/68	-11.2526
▁complicate	-11.253
▁volunteer	-11.253
▁compound	-11.2531
▁4/12	-11.2531
▁imp	-11.2532
▁clip	-11.2535
▁anticoagulant	-11.2535
▁purpose	-11.2536
▁14-	-11.2537
▁counsel	-11.2539
▁erythema	-11.2542
▁improve	-11.2543
5.9	-11.2544
42	-11.2554
▁know	-11.2561
▁prospective	-11.2564
salicyl	-11.2569
▁respective	-11.257
▁axill	-11.2571
non	-11.2573
lid	-11.2574
▁find	-11.2576
▁necess	-11.2576
▁loco	-11.2577
metric	-11.258
clavicular	-11.258
▁atezolizumab	-11.258
▁idiosyncra	-11.258
▁sequential	-11.258
▁trimester	-11.258
\	-11.258
©	-11.258
·	-11.258
→	-11.258
▁accrual	-11.258
▁believe	-11.258
▁calcitonin	-11.258
▁carbamazepine	-11.258
▁cytomorpholog	-11.258
▁dysrhythmias	-11.258
▁enalapril	-11.258
▁gabapentin	-11.258
▁instead	-11.258
▁knife	-11.258
▁medullary	-11.258
▁nefazodone	-11.258
▁nelfinavir	-11.258
▁neupogen	-11.258
▁phenytoin	-11.258
▁psoriasis	-11.258
▁putative	-11.258
▁rhabdomyolysis	-11.258
▁saquinavir	-11.258
▁vessels	-11.258
▁voriconazole	-11.258
▁window	-11.258
▁̈‚	-11.258
▁comprehensi	-11.258
▁lignans	-11.258
deciliter	-11.258
▁metformin	-11.258
▁substrate	-11.258
▁torsade	-11.258
▁recommendations	-11.258
▁layer	-11.258
▁together	-11.258
▁electrodes	-11.258
▁preparations	-11.258
▁booklet	-11.258
▁graft	-11.258
betactx	-11.258
▁hypothyroidism	-11.258
▁radiotracer	-11.258
▁letter	-11.258
▁trigeminy	-11.258
fungal	-11.258
▁therefore	-11.2581
▁liqu	-11.2581
▁interleukin	-11.2581
▁sperm	-11.2581
▁ligation	-11.2581
▁1.0000	-11.2581
stances	-11.2581
glycemia	-11.2581
▁ideation	-11.2581
▁stress	-11.2581
▁again	-11.2582
▁hematology	-11.2582
▁diplo	-11.2582
▁salpingo	-11.2582
hydroxy	-11.2582
rican	-11.2583
▁hemorrhagic	-11.2583
▁help	-11.2583
▁series	-11.2583
▁antiemetic	-11.2583
▁malate	-11.2583
/41	-11.2583
responders	-11.2583
▁incurable	-11.2584
▁alleles	-11.2585
▁pointes	-11.2585
▁comorbidity	-11.2585
▁donor	-11.2586
▁goal	-11.2587
compensat	-11.2587
▁keratin	-11.2587
uria	-11.2588
▁delivery	-11.259
▁mediastin	-11.259
▁letha	-11.259
▁lymphopenia	-11.2591
ordin	-11.2591
▁inoculations	-11.2591
ovulation	-11.2592
birads	-11.2592
▁(24.	-11.2592
titis	-11.2593
▁uca	-11.2594
▁biphosphonate	-11.2594
▁conven	-11.2596
▁0/16	-11.2596
rads	-11.2599
▁clari	-11.2599
rophy	-11.2599
▁leag	-11.26
▁hetero	-11.26
▁naprox	-11.26
▁young	-11.2601
▁particular	-11.2602
▁geo	-11.2602
▁applicat	-11.2603
▁nitrosoureas	-11.2604
▁28.6	-11.2605
▁chance	-11.2606
▁topic	-11.2606
cur	-11.2606
ctc	-11.2609
▁modifications	-11.2618
▁classes	-11.2621
▁(13.1	-11.2623
ttdp	-11.2625
card	-11.2627
travas	-11.2628
▁0,1,	-11.2628
▁amprenavir	-11.2631
▁nadir	-11.2631
cervical	-11.2631
▁instruction	-11.2631
▁(12.9	-11.2632
bms	-11.2633
▁vestibule	-11.2639
▁sulf	-11.2644
▁exceeded	-11.2645
▁monitored	-11.2649
▁2012	-11.2649
▁45.0	-11.2654
▁rapamycins	-11.2659
advantages	-11.2663
immunoreactivity	-11.2664
▁5.6	-11.2665
▁corn	-11.2669
arrhythmi	-11.2674
▁field	-11.2677
▁(15.1	-11.2677
ncic	-11.2682
▁tpc	-11.2686
▁dhea	-11.2691
▁prefer	-11.2694
▁fdg	-11.2696
▁tivantinib	-11.2696
▁syringe	-11.2696
...)	-11.2698
▁neoplasms	-11.2707
▁7.5	-11.2707
▁icf	-11.2708
▁sirolimus	-11.2711
▁imrt	-11.2715
▁states	-11.2717
▁(300	-11.2721
▁7/48	-11.2722
▁1-7.	-11.2724
mag	-11.2728
<10%	-11.2728
▁20/1	-11.2731
cretion	-11.2731
480	-11.2739
▁(6.3	-11.2742
▁prot	-11.2746
▁epo	-11.2758
88%	-11.276
▁2-4	-11.2778
▁[2]0/3	-11.2788
ptl	-11.2789
▁(22.9	-11.2793
log	-11.2794
▁irr	-11.2795
▁revi	-11.2797
▁ent	-11.2797
/49	-11.2797
▁muc	-11.2798
icf	-11.2802
▁3.5	-11.2809
▁(19.6	-11.2816
▁soft	-11.2821
▁int	-11.2821
start	-11.2826
▁iib	-11.2828
▁carrier	-11.2833
▁te	-11.2838
▁25-	-11.284
▁ibe	-11.2845
gat	-11.2849
▁view	-11.2865
py	-11.2867
▁referr	-11.2869
2:	-11.2877
▁elig	-11.2888
▁nonhematologic	-11.2895
▁12,	-11.2896
▁(>1	-11.2911
pilone	-11.2913
mcg	-11.2917
▁hcg	-11.2923
▁incomplete	-11.293
▁2/22	-11.2937
▁4/2	-11.2937
▁practices	-11.2937
▁fibro	-11.2943
1/4	-11.2951
▁(15.8	-11.2952
6/36	-11.2952
graphy	-11.296
▁(28	-11.2961
▁(20.2	-11.2962
eptic	-11.2967
ssage	-11.2973
▁4/	-11.2978
chica	-11.2983
▁radiographical	-11.2995
acidosis	-11.2995
rna	-11.2996
▁(30.6	-11.2999
▁0/127	-11.3
coli	-11.3003
8/29	-11.3004
▁2.9	-11.3005
▁barriers	-11.3005
225	-11.3008
▁[3]0/4	-11.301
▁stain	-11.3013
▁(26.3	-11.3014
-101	-11.3032
ction	-11.3038
▁mpa	-11.3042
mpt	-11.3042
▁propo	-11.3045
▁vegf	-11.3047
▁(0.98	-11.3054
fere	-11.3063
▁5/10	-11.3072
ave	-11.3077
▁atte	-11.3088
▁21/3	-11.3089
ator	-11.3101
297	-11.3109
▁benefits	-11.3114
▁21/28	-11.3121
▁dl	-11.3122
▁1-4	-11.3125
tensive	-11.3125
▁(18	-11.3126
454	-11.3137
▁ekg	-11.3142
etron	-11.3143
ively	-11.3148
▁dp	-11.3155
▁expanders	-11.3158
▁id	-11.316
▁tra	-11.3169
pn	-11.3176
▁y	-11.3184
ethic	-11.319
cb	-11.3199
▁overexpress	-11.3206
points	-11.3208
▁19/	-11.321
thylprednisolone	-11.3213
▁3/1	-11.3224
▁page	-11.3229
2/42	-11.3229
▁ci	-11.3233
▁221	-11.3236
▁ingest	-11.3244
asis	-11.3246
rn	-11.3249
/24	-11.3254
▁8.3	-11.3259
▁(24	-11.3259
▁trac	-11.3275
▁65	-11.3329
736	-11.3335
months	-11.3336
▁18-	-11.335
▁angio	-11.3352
38.5	-11.3354
cum	-11.3354
▁(6.	-11.3364
00%	-11.3367
pg	-11.3387
▁ulcers	-11.339
genetic	-11.3391
▁6/3	-11.3406
=4	-11.3412
7/34	-11.342
▁(22.	-11.3422
▁(35.	-11.3426
6%	-11.344
lin	-11.3442
▁isolat	-11.3446
▁survivor	-11.3463
ntraindications	-11.3467
▁pres	-11.3468
▁wide	-11.3469
fine	-11.3472
▁(17.2	-11.3473
▁-2	-11.3494
▁canad	-11.3498
▁4/9	-11.3499
fraction	-11.3514
ut	-11.3537
▁17/	-11.3541
enhance	-11.355
dana	-11.3552
▁2/38	-11.3562
ish	-11.3571
smal	-11.3574
▁82	-11.3579
▁7.	-11.3593
ec	-11.3623
▁>4	-11.3637
vice	-11.3647
.4	-11.3647
.7%	-11.3648
son	-11.3663
▁>7	-11.3666
▁7/4	-11.3672
ill	-11.3699
advanced	-11.3708
gene	-11.3725
1).	-11.3759
coumadin	-11.3772
▁grades	-11.3796
sen	-11.3801
wks	-11.3804
▁fla	-11.3808
▁2/29	-11.3808
▁disc	-11.381
1/48	-11.3831
▁deh	-11.3837
cbr	-11.3862
▁biopsi	-11.3865
iiia	-11.3876
2/25	-11.3881
ough	-11.3886
ten	-11.3887
▁add	-11.3888
pa	-11.3897
pharmaceutical	-11.3897
ca	-11.3903
bira	-11.3909
68%)	-11.3911
ib	-11.3915
ard	-11.3922
▁revers	-11.3929
▁3/34	-11.3929
bm	-11.3935
▁22/7	-11.3938
ocom	-11.3941
electrocardiogra	-11.3947
8.4	-11.3957
▁iodin	-11.3965
▁2/8	-11.3976
▁imagi	-11.398
▁techn	-11.398
201	-11.3994
exia	-11.3996
ophil	-11.4006
2141795	-11.4009
â	-11.4009
▁ambulatory	-11.4009
▁epothilone	-11.4009
▁mortality	-11.4009
▁neratinb	-11.4009
▁angioplasty	-11.4009
▁trunk	-11.4009
▁mania	-11.4011
▁premedication	-11.4013
07	-11.4015
▁fulfill	-11.4018
stones	-11.4018
▁timepoint	-11.4019
indications	-11.4021
▁[1]3/	-11.4025
oplasty	-11.4027
parathyroid	-11.403
▁satisfy	-11.4031
▁mes	-11.4038
▁medicines	-11.4044
▁identify	-11.4052
▁cali	-11.406
▁clips	-11.4063
▁bronch	-11.4065
▁dep	-11.4068
▁opposi	-11.4068
▁ec	-11.4071
ken	-11.4072
213	-11.4075
▁permit	-11.4079
eic	-11.4105
▁24/7	-11.4122
▁carcinomato	-11.4126
▁2009	-11.413
▁convert	-11.4152
aire	-11.4171
hot	-11.4176
nsitivity	-11.4196
▁generally	-11.4215
▁fm	-11.4233
ibula	-11.4234
▁fa	-11.4238
▁(21.3	-11.4243
.75	-11.4245
▁[2]1/1	-11.4263
▁vs	-11.4263
2/50	-11.4265
hydrate	-11.4266
853	-11.4266
unt	-11.4269
▁9-	-11.4273
▁gonadotrop	-11.4293
▁9.2	-11.4301
▁additionally	-11.4309
▁standards	-11.4309
ping	-11.4322
▁transl	-11.4336
/75	-11.4339
▁metaboliz	-11.4349
▁dens	-11.4371
pona	-11.4371
▁presented	-11.4377
▁serm	-11.438
hip	-11.4388
stimulator	-11.4393
▁produc	-11.4397
▁23/	-11.4399
chrom	-11.4415
24)	-11.4417
145	-11.4419
own	-11.4422
penia	-11.4438
lat	-11.4445
rp	-11.4451
▁wor	-11.4457
▁normaliz	-11.4459
1-2	-11.446
▁describ	-11.4461
▁varic	-11.4466
ond	-11.4471
▁prote	-11.4475
9.1	-11.4481
nocl	-11.4483
lysis	-11.4491
ham	-11.4505
.13	-11.4506
rm	-11.4508
/33	-11.4514
▁ep	-11.4518
nces	-11.4536
122	-11.4551
tory	-11.4558
▁43	-11.4563
▁angi	-11.4572
▁assist	-11.4573
▁chil	-11.4574
▁2/33	-11.458
288	-11.458
ristal	-11.4588
are	-11.4594
metry	-11.4616
▁investigat	-11.4622
volum	-11.4622
▁>=3	-11.4637
▁scanne	-11.466
▁mil	-11.4679
tm	-11.468
rd	-11.468
▁pneum	-11.4686
way	-11.4695
▁hemato	-11.4707
▁releasing	-11.4721
▁13/3	-11.4733
fol	-11.4736
112	-11.4741
▁omit	-11.4747
lh	-11.4759
▁(20.	-11.4769
▁maximal	-11.4787
▁wh	-11.479
▁inte	-11.4804
▁chi	-11.4805
▁sha	-11.4819
ssi	-11.482
mo	-11.4839
▁highe	-11.4851
▁fo	-11.4872
ologic	-11.4873
75%	-11.488
bd	-11.4904
number	-11.4911
▁cre	-11.4925
calcifications	-11.4929
▁5/5	-11.4934
▁tis	-11.4949
▁10.	-11.4966
▁68	-11.4971
vi	-11.4981
▁[2]	-11.5004
85%	-11.5007
▁act	-11.5011
ometry	-11.5012
52.8	-11.5013
drin	-11.5017
▁toxic	-11.5025
▁cav	-11.5044
▁reso	-11.505
▁extrac	-11.5064
1.73	-11.5079
▁tib	-11.509
1.8	-11.5099
▁ski	-11.5099
▁2/17	-11.5105
sic	-11.5124
secondary	-11.5127
▁cup	-11.5142
unit	-11.5144
▁15.3	-11.5146
urg	-11.5147
symptomatic	-11.5147
5/29	-11.5152
pass	-11.5159
type	-11.5162
egfr	-11.5165
link	-11.5167
rib	-11.5167
lic	-11.5172
ite	-11.5176
▁100.	-11.5185
more	-11.5193
erior	-11.5194
▁~	-11.5204
▁12.	-11.5212
^2]	-11.5215
investigator	-11.5219
calcification	-11.522
2.0	-11.522
control	-11.5222
▁isolate	-11.5222
/201	-11.5246
pregnant	-11.5249
stabiliz	-11.5259
0/25	-11.5264
ations	-11.5273
▁hea	-11.5273
lives	-11.528
eligibility	-11.5294
anti	-11.5311
29	-11.5315
▁val	-11.5321
5.0	-11.5327
skin	-11.5328
sa	-11.5329
▁46.	-11.5332
protocol	-11.5334
imaging	-11.5334
wer	-11.5345
like	-11.5347
.3)	-11.5351
blood	-11.5353
bilateral	-11.5366
assessed	-11.5366
▁recruite	-11.537
diagnosed	-11.5384
condom	-11.5385
through	-11.5395
lumpectomy	-11.5398
human	-11.5404
carboplatin	-11.5405
needle	-11.5407
disappear	-11.5414
immunotherapy	-11.5414
fluorescen	-11.5416
evaluable	-11.5417
ypt	-11.5418
omega	-11.542
oophorectomy	-11.5422
barrier	-11.5422
lhrh	-11.5422
5-3	-11.5423
everolimus	-11.5424
compromise	-11.5426
wk	-11.543
small	-11.5433
ces	-11.5434
hysterectomy	-11.5434
4/6	-11.5436
multifocal	-11.5437
infectious	-11.5438
sensory	-11.5438
thorax	-11.5438
diaphragm	-11.5438
cytoxan	-11.5438
american	-11.5438
accessible	-11.5438
epitheli	-11.5441
match	-11.5441
sclerotic	-11.5441
kinase	-11.5441
back	-11.5442
rea	-11.545
appendi	-11.545
exceptions	-11.5451
msec	-11.5458
▁(4.95%)	-11.5458
whole	-11.546
▁typ	-11.546
▁(48.	-11.5468
sequence	-11.5468
1,500/	-11.5471
pericarditis	-11.5479
these	-11.5482
▁/	-11.5483
pill	-11.5487
▁ap	-11.5506
axillary	-11.5517
mtor	-11.552
▁str	-11.5526
mbc	-11.5526
▁66	-11.5526
ans	-11.5528
▁3/20	-11.5531
tant	-11.5535
sponsor	-11.5538
▁red	-11.5545
▁conserv	-11.5548
involved	-11.5553
▁contraindicat	-11.5559
▁resid	-11.5567
▁determin	-11.5575
7.7	-11.5579
▁decreas	-11.5585
▁<50	-11.5592
▁mc	-11.5595
▁provid	-11.56
-8	-11.56
▁letrozol	-11.561
▁10/7	-11.5611
▁1-7	-11.5614
▁too	-11.5616
coagulant	-11.5618
▁modification	-11.5625
▁agonist	-11.5625
▁parameter	-11.5626
▁problem	-11.5626
▁antibiotic	-11.5626
▁practic	-11.5631
▁concern	-11.5631
▁9.3	-11.5634
▁deliver	-11.5637
gel	-11.564
▁archiv	-11.5643
▁censor	-11.5644
poor	-11.5646
▁benefi	-11.5649
▁reach	-11.5649
▁cytologic	-11.5652
▁inhibit	-11.5658
▁anesthesi	-11.5663
>=	-11.5663
▁sensor	-11.5665
ologists	-11.5665
ligible	-11.5667
▁numb	-11.5669
▁replace	-11.5674
▁potent	-11.5674
▁south	-11.5675
▁osteoporo	-11.5675
expande	-11.5675
▁mechani	-11.5675
▁sjogren	-11.5675
572016	-11.5675
diphenhydramine	-11.5675
gefitinib	-11.5675
tegafur	-11.5675
telangiectasia	-11.5675
vitiligo	-11.5675
ythmia	-11.5675
°	-11.5675
▁antimicrobial	-11.5675
▁approach	-11.5675
▁background	-11.5675
▁biloba	-11.5675
▁calendar	-11.5675
▁chevalier	-11.5675
▁cigarette	-11.5675
▁claustrophobia	-11.5675
▁clopidogrel	-11.5675
▁clopper	-11.5675
▁cluster	-11.5675
▁cohosh	-11.5675
▁convulsion	-11.5675
▁defibrillator	-11.5675
▁difficult	-11.5675
▁digoxin	-11.5675
▁disturb	-11.5675
▁fluconazole	-11.5675
▁haemoglobin	-11.5675
▁insipidus	-11.5675
▁jaundice	-11.5675
▁language	-11.5675
▁leukapheresis	-11.5675
▁membrane	-11.5675
▁microspheres	-11.5675
▁modality	-11.5675
▁mometasone	-11.5675
▁mouthwash	-11.5675
▁naïve	-11.5675
▁oximetry	-11.5675
▁phenobarbital	-11.5675
▁practitioner	-11.5675
▁radioisotope	-11.5675
▁sargramostim	-11.5675
▁tremelimumab	-11.5675
▁sooner	-11.5675
▁streptococc	-11.5675
▁teratogenic	-11.5675
▁accompan	-11.5675
▁gallstones	-11.5675
▁sugar	-11.5675
▁obscure	-11.5675
papular	-11.5676
▁surgeries	-11.5676
▁vinca	-11.5676
mucinous	-11.5676
▁regulations	-11.5676
▁retention	-11.5676
▁subtract	-11.5676
lidoderm	-11.5676
▁policy	-11.5676
▁relief	-11.5676
▁closure	-11.5676
▁excised	-11.5676
▁board	-11.5676
▁inclusive	-11.5676
iressa	-11.5676
)+	-11.5676
▁comparator	-11.5676
▁southwest	-11.5676
▁chorio	-11.5676
▁sociological	-11.5676
▁committed	-11.5677
▁augment	-11.5677
▁account	-11.5677
▁maculo	-11.5677
▁[3]1/43	-11.5677
▁equation	-11.5677
▁oxid	-11.5678
▁decompensat	-11.5678
▁immunization	-11.5678
▁allergen	-11.5678
▁15-17	-11.5679
▁160/90	-11.5679
▁update	-11.568
▁korean	-11.568
▁thick	-11.5681
hoid	-11.5681
▁18-70	-11.5681
elbine	-11.5682
▁leuco	-11.5682
▁look	-11.5682
▁manifestation	-11.5682
▁commenc	-11.5683
▁ethnicity	-11.5683
▁dryness	-11.5683
▁0.85	-11.5683
▁140/90	-11.5683
▁5.7%	-11.5683
▁hypnotherapy	-11.5683
▁isoenzyme	-11.5684
▁[1]4/	-11.5685
▁training	-11.5685
▁<20%	-11.5686
▁aspect	-11.5686
▁statistic	-11.5686
inostat	-11.5689
▁axi	-11.5689
▁[1]0/6	-11.5689
▁excessive	-11.5689
▁forward	-11.569
▁bandages	-11.5691
▁(*)	-11.5692
▁aug	-11.5694
▁da	-11.5694
▁pathologist	-11.5694
▁>480	-11.5696
▁anesthesia	-11.5696
▁(30.5	-11.5697
▁palliation	-11.5697
▁56/2	-11.5698
▁[4]0/	-11.5699
▁undertaken	-11.5699
▁(>7	-11.57
▁pemetrexed	-11.5704
vivo	-11.5704
▁[5]0/	-11.5705
▁8-10	-11.5706
▁far	-11.5706
▁6/22	-11.5706
▁father	-11.5706
▁(39.	-11.5708
▁derivatives	-11.5709
▁beats	-11.5711
▁10.3	-11.5713
▁uncertain	-11.5715
▁sarcoma	-11.5715
▁polym	-11.5716
▁[1]1/43	-11.5718
▁naive	-11.5718
coagulants	-11.5722
erase	-11.5722
metabolite	-11.5725
▁availab	-11.5726
incl	-11.5726
▁concerns	-11.5727
▁improved	-11.5728
▁30.4.	-11.5731
▁(15.5	-11.5731
▁wa	-11.5732
▁(59.	-11.5734
▁audi	-11.5735
▁(19.0	-11.5737
rgy	-11.5738
gastroduoden	-11.5739
0.05%	-11.5739
▁iodine	-11.574
tuzumab	-11.5744
▁veliparib	-11.5747
▁borderline	-11.5747
▁>20	-11.5749
▁vasectomy	-11.5751
▁carbonate	-11.5751
▁4.	-11.5755
▁what	-11.5756
▁tube	-11.5756
vo	-11.5756
▁secur	-11.5758
▁(11.9	-11.5762
▁diverticul	-11.5764
▁(208	-11.5766
▁(28.	-11.5767
▁(16.	-11.5769
xuln	-11.5773
▁comparable	-11.5775
▁52/1	-11.5776
▁(19.5	-11.578
▁ost	-11.578
▁inactivat	-11.578
▁materials	-11.5785
▁peer	-11.5789
▁fluo	-11.579
▁rhythm	-11.5795
▁trunc	-11.5798
▁22/2	-11.5798
▁ro	-11.5798
7.6	-11.5802
▁harv	-11.5806
▁[2]0/	-11.5806
▁structure	-11.5811
▁spermicides	-11.5811
0.9%	-11.5811
▁hole	-11.5812
blastic	-11.5813
amine	-11.5817
maxim	-11.582
▁4/49	-11.5821
▁provider	-11.5822
sod	-11.5823
▁reviewer	-11.5825
▁sish	-11.5828
▁probabilit	-11.5829
▁(12.0	-11.583
▁89.	-11.583
▁eating	-11.5833
▁path	-11.5833
▁marketed	-11.5836
105	-11.5837
▁researcher	-11.5838
sentin	-11.5839
▁members	-11.5839
▁imply	-11.584
cyto	-11.5846
▁exper	-11.5849
▁knp	-11.585
itable	-11.5861
▁(24.3	-11.5866
▁enhance	-11.5866
▁enhanc	-11.5875
▁probe	-11.5876
▁biph	-11.5878
verage	-11.588
▁chromo	-11.5882
▁(5.9	-11.5884
▁adr	-11.5884
▁grad	-11.5892
ist	-11.5897
▁ag	-11.5905
▁interaction	-11.5907
▁band	-11.5908
oth	-11.5911
oscop	-11.5911
▁epitheli	-11.5916
usion	-11.592
▁endpoints	-11.5921
▁arr	-11.5922
nu	-11.5926
irb	-11.5931
▁asci	-11.5933
17)	-11.5933
▁>6	-11.5937
welling	-11.5945
▁(39.1	-11.5948
▁4/41	-11.596
▁molecule	-11.5968
▁25/	-11.597
1.6	-11.5972
mit	-11.5977
▁1/68	-11.5978
▁hematological	-11.598
thyroidism	-11.5988
▁18.	-11.5988
▁papill	-11.5991
ked	-11.5993
▁ill	-11.5998
going	-11.6002
▁oste	-11.6003
▁antagonist	-11.6004
▁hydr	-11.6012
▁biliary	-11.6013
▁2008	-11.6021
▁4.5	-11.6022
▁crit	-11.6026
▁lh	-11.6027
▁fro	-11.603
58/4	-11.603
▁speaking	-11.6036
▁5.8	-11.6037
▁transduc	-11.6037
crcl	-11.6038
1.67%	-11.6038
iac	-11.6046
▁7/39	-11.6053
9/39	-11.6054
compa	-11.6055
4.0).	-11.6056
▁<2.0	-11.6061
▁(140	-11.6066
▁(25.7	-11.6067
125	-11.6071
▁(23.8	-11.6074
▁1,5	-11.6081
▁(<)	-11.6081
aria	-11.6088
ro	-11.6093
▁voluntar	-11.6094
we	-11.6094
▁(18.4	-11.6106
▁mu	-11.6107
▁2/218	-11.611
isc	-11.6118
▁exclusive	-11.6118
ration	-11.6119
▁localiz	-11.6121
▁(28.1	-11.6131
▁ctc	-11.6134
cip	-11.6135
myl	-11.614
▁6/8	-11.6142
▁stat	-11.6145
▁6.	-11.6149
▁(10.7	-11.6152
▁90%	-11.6155
▁az	-11.6157
▁nac	-11.6164
▁31/	-11.6173
▁(14.9	-11.6178
▁(71.	-11.6186
▁7/11	-11.6189
▁hcv	-11.6189
anib	-11.6191
seous	-11.6205
ised	-11.6206
▁cert	-11.6208
▁mill	-11.621
▁donat	-11.6222
▁meetings	-11.6223
▁5/1	-11.6228
▁induc	-11.6244
▁origina	-11.6244
▁5/26	-11.6246
▁cox	-11.6251
▁specimens	-11.626
▁asco	-11.6272
0/218	-11.6279
bilirrubinemia	-11.629
ethyl	-11.6293
fs	-11.6309
1/11	-11.6319
cor	-11.632
▁256	-11.6321
▁proc	-11.6347
▁sa	-11.6351
▁(0.71	-11.6353
▁99.	-11.6358
▁4/5	-11.6366
▁stimulati	-11.6366
dna	-11.6369
▁gate	-11.6372
▁(7.4	-11.6377
mpon	-11.6378
use	-11.6393
▁6/16	-11.6393
▁(1.94	-11.6395
▁2.8	-11.6408
▁spot	-11.6422
▁leg	-11.6422
▁tnbc	-11.6427
▁17/6	-11.6432
▁1.6	-11.6435
9:	-11.644
▁5/24	-11.6444
▁exercises	-11.6445
▁17/1	-11.6448
muscular	-11.6466
icit	-11.6467
133	-11.6469
ich	-11.6483
connect	-11.6483
tch	-11.6492
sterone	-11.65
cino	-11.6504
6/39	-11.6512
set	-11.6519
▁signal	-11.6525
▁calorie	-11.6526
mtnbc	-11.6528
7.8	-11.6539
oncom	-11.654
▁conservati	-11.6555
▁1.1)	-11.6557
▁impa	-11.6558
▁exams	-11.6562
1-4	-11.6568
▁pepti	-11.6572
▁(17.3	-11.6573
/163	-11.6581
▁(0.984	-11.6587
▁(3.95	-11.6594
▁(6.1	-11.6594
▁physiological	-11.6595
▁13/25	-11.6599
▁table	-11.6601
par	-11.6624
▁3/38	-11.6627
115	-11.663
▁regiment	-11.663
04	-11.6641
▁arms	-11.6641
.43	-11.6642
▁[1]0/4	-11.6643
6.9	-11.6646
▁bd	-11.6651
nac	-11.6656
▁axillae	-11.6656
ward	-11.666
vity	-11.6661
▁occ	-11.6674
▁9/2	-11.6674
▁thin	-11.6678
▁limitation	-11.6686
▁col	-11.6688
wi	-11.6699
chemic	-11.6703
▁spir	-11.6708
▁controll	-11.6718
akin	-11.672
legal	-11.6725
otensi	-11.6726
▁color	-11.6752
53-	-11.6757
▁estri	-11.6758
30.7	-11.6762
▁(5.	-11.6786
tensi	-11.6788
247	-11.679
▁spiro	-11.6801
5.7	-11.6803
responding	-11.6803
0/66	-11.6806
▁5/9	-11.6818
formation	-11.6821
27	-11.6851
leu	-11.6853
5.8	-11.6856
217	-11.6859
5-	-11.686
▁train	-11.686
▁(41.	-11.6866
.87	-11.6867
41	-11.6869
▁cardi	-11.6871
▁(7.37	-11.6882
ylate	-11.6883
nch	-11.6883
nion	-11.6894
26	-11.69
2/8	-11.6901
referred	-11.6901
▁thr	-11.6901
history	-11.6904
▁(20	-11.6905
ysi	-11.691
▁48.	-11.6925
▁fra	-11.693
asa	-11.6941
9/48	-11.6949
)*	-11.6971
▁biologics	-11.6974
▁(<10%	-11.7005
▁0.0	-11.7009
sy	-11.7018
lective	-11.7019
cortiso	-11.7036
ogenic	-11.7045
13%	-11.7048
▁7/3	-11.7061
."	-11.7064
▁stimula	-11.7067
definity	-11.7068
ook	-11.7068
▁(6.5	-11.7071
cva	-11.7078
6/17	-11.7081
▁threaten	-11.7088
6/25	-11.7089
oids	-11.7089
ospas	-11.7092
▁intrac	-11.7101
▁20.	-11.7112
2.75	-11.7118
ross	-11.712
edema	-11.7125
stol	-11.7135
met	-11.7138
bh	-11.714
tor	-11.7141
▁tia	-11.7143
46.3	-11.7157
resh	-11.7161
pel	-11.7163
reconstructi	-11.7172
▁radi	-11.7181
▁calculat	-11.7188
▁9/9	-11.7189
▁0-3	-11.719
▁7/9	-11.7199
▁gin	-11.7202
tations	-11.7206
▁pos	-11.721
-7	-11.7215
36)	-11.7216
373	-11.7222
▁ju	-11.7226
tating	-11.7228
hydr	-11.7246
.5	-11.7263
▁reg	-11.727
29%)	-11.7274
.7	-11.7276
▁(-1	-11.7279
sid	-11.7288
ta	-11.7297
▁spr	-11.7305
▁guid	-11.7311
indication	-11.7315
486	-11.7318
ech	-11.7333
rombocytopenia	-11.7335
median	-11.7338
▁(7.8	-11.7338
▁(19	-11.7345
istered	-11.735
ification	-11.736
2/74	-11.7362
▁ch	-11.7368
procedures	-11.7375
field	-11.7386
▁ket	-11.7394
body	-11.7406
▁(1.11	-11.7418
▁10.7	-11.7418
class	-11.7422
gm	-11.7424
37.2	-11.7429
invasion	-11.7436
▁>150	-11.7443
ris	-11.7448
res	-11.7451
opyrimidine	-11.7453
▁regist	-11.7456
▁glyc	-11.7463
taxanes	-11.7465
las	-11.7482
54.0	-11.7491
lls	-11.7519
▁2/26	-11.7521
▁hypercoagulab	-11.7522
ri	-11.7524
▁5/16	-11.7536
▁4.3	-11.754
▁mal	-11.7546
ritic	-11.7546
▁cc	-11.7551
▁(25.4	-11.7551
tional	-11.7559
▁144	-11.7562
▁8.8	-11.7567
ior	-11.7575
9.29	-11.7583
▁107	-11.7587
▁(60.	-11.7592
8/22	-11.7606
tpcr	-11.7614
97	-11.7627
▁20/2	-11.7632
cu	-11.7632
▁medicine	-11.7638
▁primar	-11.7658
▁analgesi	-11.7661
lm	-11.7663
genitourinary	-11.7675
•	-11.7675
▁biodesign	-11.7675
▁celsius	-11.7675
▁colostomy	-11.7675
▁flexitouch	-11.7675
ö	-11.7675
√	-11.7676
▁spread	-11.7676
▁quarter	-11.7676
▁chemotherapies	-11.7676
▁finish	-11.7676
▁commit	-11.7676
▁diaries	-11.7676
cycline	-11.7676
▁capture	-11.7676
rptd	-11.7677
▁metrics	-11.7677
▁fluent	-11.7685
▁(19.8	-11.7685
▁pack	-11.7686
▁variation	-11.7688
europe	-11.7696
cati	-11.7699
▁56.	-11.77
wor	-11.7705
myel	-11.7708
0.50	-11.7713
▁reached	-11.7714
▁respond	-11.7717
etocl	-11.7721
0/85	-11.7723
fill	-11.7725
▁30/	-11.7726
end	-11.7726
dvt	-11.7727
ort	-11.7739
▁15/1	-11.7745
=2	-11.7745
▁night	-11.775
▁schizophrenia	-11.7764
▁space	-11.7764
▁-4.	-11.777
▁boy	-11.7773
▁shar	-11.779
▁elect	-11.7806
▁app	-11.7807
ypn	-11.7812
green	-11.7821
neously	-11.7828
▁3/10	-11.7833
▁11/1	-11.7847
combina	-11.7854
wn	-11.7855
▁(4.2	-11.7857
▁hypnosis	-11.7875
9.6	-11.7881
pleuri	-11.7885
▁bound	-11.7887
1/	-11.7887
bacteri	-11.7897
lvul	-11.7898
▁cold	-11.7906
▁supplementa	-11.7908
▁11.0	-11.7918
8.71	-11.7923
2.7	-11.7923
utis	-11.7924
▁5.9	-11.7927
pyrimidine	-11.7933
anned	-11.7933
mas	-11.7948
▁mon	-11.7959
▁(19.	-11.7963
▁unde	-11.7974
/40	-11.798
▁transplants	-11.7985
▁3/2	-11.7989
▁1;	-11.7996
ume	-11.8006
llig	-11.8026
osa	-11.8048
spasm	-11.8051
▁61	-11.8053
7/2	-11.8056
▁obli	-11.8077
▁av	-11.8079
▁subse	-11.808
▁cel	-11.808
dc	-11.8095
91	-11.8103
▁attacks	-11.8111
my	-11.8122
his	-11.8126
▁(95	-11.8126
▁12/	-11.8139
▁eff	-11.8143
▁33	-11.8152
▁nas	-11.8155
▁expl	-11.8159
jun	-11.8171
▁para	-11.8171
▁lv	-11.8192
▁+1	-11.8195
radiated	-11.8195
▁3/22	-11.8202
cept	-11.8202
100%	-11.8202
▁9/11	-11.8206
▁(29.	-11.8225
ks	-11.825
stered	-11.8277
▁223	-11.8288
▁[1]0/7	-11.8289
▁dermat	-11.8295
ement	-11.8303
theli	-11.831
▁mit	-11.8314
25%	-11.8316
cess	-11.8318
hyperos	-11.832
21.8	-11.8334
▁24/	-11.834
▁insu	-11.8345
.82	-11.8345
▁observe	-11.8347
alysis	-11.8362
▁serial	-11.8371
uga	-11.8379
▁refl	-11.8382
participants	-11.8388
sp	-11.8392
▁fel	-11.8394
ins	-11.8395
scr	-11.8405
▁summar	-11.8418
2/4	-11.8434
ssure	-11.8465
drop	-11.8469
▁3/36	-11.8471
ssing	-11.8473
/17	-11.8476
tinal	-11.8481
ise	-11.8487
0-	-11.8504
ole	-11.8517
▁hal	-11.8519
hg	-11.8522
▁pit	-11.8538
▁pancreat	-11.8538
▁lea	-11.8552
ceive	-11.8564
▁us	-11.8575
▁en	-11.8624
▁3/28	-11.8628
▁(8	-11.8634
▁ham	-11.8653
▁intestin	-11.8658
ely	-11.8663
▁infl	-11.8671
prednisolone	-11.8672
ns	-11.8674
▁vas	-11.8686
inding	-11.8692
▁com	-11.8696
nade	-11.8698
angin	-11.8701
▁2.0.	-11.8705
gesti	-11.8719
rticle	-11.872
▁fib	-11.8726
▁mand	-11.8728
otherapy	-11.874
▁-7	-11.8752
ges	-11.8753
iol	-11.8756
▁vo	-11.8771
mitt	-11.8776
137	-11.8776
eti	-11.8793
▁ur	-11.8815
round	-11.882
▁12.5	-11.8821
tia	-11.8846
▁estr	-11.8854
▁cru	-11.8859
▁29/3	-11.8869
atory	-11.8869
▁tel	-11.8886
rima	-11.889
0.2	-11.8891
▁(36	-11.8901
▁2/15	-11.8902
.3%	-11.8905
▁cast	-11.8913
▁11/3	-11.8944
▁14/5	-11.8948
ired	-11.895
/19	-11.895
-38	-11.8957
▁6/1	-11.8964
strain	-11.8996
atinib	-11.9002
▁wou	-11.9009
nizing	-11.9011
ekg	-11.9049
suppression	-11.9049
8.6	-11.9055
prazole	-11.9056
▁consenting	-11.9057
.84	-11.9069
▁9.	-11.9092
/68	-11.9098
▁pneumo	-11.9101
ological	-11.9104
olact	-11.9107
melanom	-11.9114
▁11/	-11.9123
1,73	-11.9128
▁comp	-11.9128
tran	-11.9142
▁respon	-11.9147
dered	-11.9163
2000	-11.9165
ux	-11.9166
▁fibr	-11.9182
from	-11.9195
pleur	-11.92
▁92	-11.9202
tron	-11.9205
▁[2]0/2	-11.9205
.26	-11.9206
tech	-11.9206
cellul	-11.9231
3.8	-11.9242
*10^9	-11.9249
▁gla	-11.9255
ngle	-11.9273
075	-11.929
▁inc	-11.9308
123	-11.9329
▁13.	-11.9329
▁clo	-11.9334
tent	-11.9335
▁facilitat	-11.9343
▁(>/=	-11.9353
sical	-11.936
▁am	-11.9373
.93	-11.9379
9.7	-11.9379
▁-0.	-11.9383
240	-11.9415
8]	-11.9415
isolate	-11.9417
.14	-11.9418
failure	-11.9435
ulated	-11.9441
ost	-11.9441
modifie	-11.9451
▁58	-11.9451
▁recurrences	-11.9457
▁cd	-11.9458
.0)	-11.9478
menopause	-11.9481
infection	-11.9491
/280	-11.9498
ties	-11.9499
▁tap	-11.9504
▁characteri	-11.9518
imrt	-11.9524
associate	-11.9534
women	-11.9537
▁hypert	-11.9548
range	-11.9558
ff	-11.9562
go	-11.9562
▁ty	-11.957
zes	-11.9573
▁16/1	-11.9575
▁quanti	-11.9589
▁imag	-11.9606
mpa	-11.9613
▁[1]0/	-11.9621
percent	-11.9628
▁133	-11.9628
exclusive	-11.9636
▁gro	-11.9637
▁62	-11.9649
ratum	-11.9653
les	-11.9658
ady	-11.9659
randomization	-11.9679
▁122	-11.969
heart	-11.9696
▁occlusi	-11.9699
each	-11.9702
▁ce	-11.9704
death	-11.972
drug	-11.9722
respond	-11.9722
investigational	-11.9723
▁(54.	-11.9726
5.59	-11.9733
▁18/	-11.9736
previous	-11.9737
▁hospitali	-11.9744
000/	-11.9745
interval	-11.9755
>/=	-11.9761
medication	-11.9765
brain	-11.9766
severe	-11.9773
hepatic	-11.9788
▁log	-11.9793
▁rem	-11.9799
documented	-11.9801
▁manag	-11.9801
161	-11.9803
entry	-11.9804
hemoglobin	-11.9807
pericardial	-11.9808
bevacizumab	-11.9811
acute	-11.9813
illness	-11.9823
3+)	-11.9824
follow	-11.9824
0-25	-11.9824
section	-11.9827
treat	-11.9827
▁(12.2	-11.9832
screening	-11.9838
2/49	-11.9843
progesterone	-11.9856
▁62.	-11.9858
initial	-11.9862
▁initiate	-11.9862
scan	-11.9866
anastrozole	-11.9872
setting	-11.9875
second	-11.9882
ulcer	-11.9883
gemcitabine	-11.9883
cytologically	-11.9885
▁competi	-11.9887
randomized	-11.9891
similar	-11.9892
birth	-11.9893
fibro	-11.9893
echocardiogram	-11.9893
irradiation	-11.9894
point	-11.9896
zoledron	-11.9898
ixabepilone	-11.9903
applied	-11.9904
long	-11.9905
serious	-11.9905
▁67/	-11.9906
using	-11.9907
administer	-11.9908
vaccine	-11.9908
ultrasound	-11.9909
▁cent	-11.9909
sirolimus	-11.9911
knp	-11.9911
▁accura	-11.9911
decision	-11.9911
mammogram	-11.9913
cellulitis	-11.9914
sexual	-11.9918
estro	-11.9919
balance	-11.9919
lymphedema	-11.992
amplification	-11.992
hispanic	-11.992
vorinostat	-11.9921
cox	-11.9921
hbsag	-11.9921
ranitidine	-11.9921
equivalent	-11.9922
pazopanib	-11.9922
pelvis	-11.9922
hypnosis	-11.9926
probe	-11.9926
cytological	-11.9926
ffdm	-11.9927
choice	-11.9928
agents	-11.9929
brca	-11.9929
>90	-11.993
marketed	-11.993
foot	-11.993
intraoperative	-11.9932
oxaloacet	-11.9932
consultation	-11.9933
syringe	-11.9933
taxotere	-11.9933
tivantinib	-11.9933
bladder	-11.9934
speaking	-11.9934
calcitriol	-11.9934
amplified	-11.9934
cetuximab	-11.9934
zometa	-11.9934
bound	-11.9935
dexa	-11.9935
monitor	-11.9935
modulat	-11.9936
prefer	-11.9936
gnrh	-11.9936
induction	-11.9937
fdg	-11.9937
tpc	-11.9941
pleural	-11.9943
perip	-11.9945
2013)	-11.9947
courses	-11.9947
progressing	-11.9953
dbt	-11.9953
refra	-11.9953
9.30	-11.9954
trate	-11.9954
pear	-11.9962
irradiated	-11.9965
programme	-11.9965
structure	-11.9969
techn	-11.9969
alpha	-11.9971
diet	-11.9972
reports	-11.9974
navir	-11.9981
enotypes	-11.9984
started	-11.9986
marginal	-11.9993
▁utilis	-11.9993
chemo	-11.9995
rani	-11.9998
▁0/45	-11.9999
▁3/26	-12
food	-12.0003
web	-12.0009
cish	-12.001
▁hormon	-12.0012
0.19	-12.0012
dhea	-12.0014
six	-12.0014
can	-12.0017
compute	-12.0019
testing	-12.0031
▁mot	-12.0034
cope	-12.0037
/25	-12.0046
▁immunoreactiv	-12.0046
▁[2]2/	-12.0047
720	-12.0048
tary	-12.0051
▁130	-12.0051
grad	-12.0055
cp	-12.0057
rticular	-12.0058
zed	-12.0065
fur	-12.0067
▁<10	-12.0071
nucl	-12.0078
head	-12.0086
spiration	-12.0086
respons	-12.0096
38.4	-12.0098
▁22/1	-12.0099
▁<30	-12.0105
▁abnorm	-12.0107
▁satisf	-12.0115
▁chol	-12.0115
▁anastrozol	-12.0117
▁pharmac	-12.0117
=5	-12.0118
▁1,500	-12.0119
▁infilt	-12.0119
▁significan	-12.012
ays	-12.0121
/66	-12.0122
▁nitrosourea	-12.0124
▁derivative	-12.0124
▁nsaid	-12.0125
▁professional	-12.0125
▁analogue	-12.0125
aconazole	-12.0127
▁variant	-12.013
▁#	-12.013
csa	-12.013
▁pharmaco	-12.0137
elo	-12.0137
alone	-12.0138
▁steriliz	-12.0139
▁desire	-12.0139
▁request	-12.0141
▁permi	-12.0144
nopa	-12.0144
▁advance	-12.0145
ophy	-12.0145
1/163	-12.0146
dicated	-12.0148
▁car	-12.0149
▁sympto	-12.0155
▁enrol	-12.0159
▁vomit	-12.0159
▁investigation	-12.0162
▁kerati	-12.0162
riteria	-12.0163
▁hypnotherap	-12.0163
qua	-12.0164
▁ultrasonograph	-12.0164
morbid	-12.0166
spoons	-12.0167
spective	-12.0167
▁hemorrh	-12.0167
▁respect	-12.0169
▁descripti	-12.0169
0/26	-12.017
▁bleed	-12.017
ogram	-12.017
▁flash	-12.0172
▁becom	-12.0172
▁extrasystol	-12.0172
▁issue	-12.0172
9/12	-12.0173
tachment	-12.0173
periodic	-12.0173
▁adhere	-12.0173
pulmon	-12.0174
obese	-12.0174
▁lumb	-12.0174
calcemia	-12.0174
angitis	-12.0174
bolism	-12.0175
chemistry	-12.0175
▁carcino	-12.0175
▁hypercalc	-12.0175
▁cobimetinib	-12.0175
▁diltiaze	-12.0175
▁nsabp	-12.0175
-715992	-12.0175
arimidex	-12.0175
chamomil	-12.0175
environment	-12.0175
ilinoquinazoline	-12.0175
othymidine	-12.0175
phosphoinositide	-12.0175
ɜ	-12.0175
⁄	-12.0175
▁addiction	-12.0175
▁azoospermia	-12.0175
▁decadron	-12.0175
▁demographic	-12.0175
▁deposited	-12.0175
▁fluorothymidine	-12.0175
▁frequent	-12.0175
▁gynecologi	-12.0175
▁hyperlipidemia	-12.0175
▁ingredients	-12.0175
▁lubricant	-12.0175
▁melphalan	-12.0175
▁metoclopramide	-12.0175
▁mskcc	-12.0175
▁nevirapine	-12.0175
▁phenothiazines	-12.0175
▁prevalent	-12.0175
▁progestogen	-12.0175
▁ramucirumab	-12.0175
▁receptivity	-12.0175
▁splenomegaly	-12.0175
▁substitute	-12.0175
▁surveillance	-12.0175
▁temozolomide	-12.0175
▁tendency	-12.0175
▁triclosan	-12.0175
▁xeloda	-12.0175
▁zofran	-12.0175
▁̈¬	-12.0175
polymorph	-12.0175
▁burden	-12.0175
▁intraveinous	-12.0175
▁resorption	-12.0175
▁sonogram	-12.0175
▁adjunct	-12.0175
▁fluoride	-12.0175
▁incident	-12.0176
▁(</=	-12.0176
▁sulfonamides	-12.0176
▁[3]3/1	-12.0176
▁french	-12.0176
▁varicella	-12.0176
▁aminotran	-12.0176
▁hematemesis	-12.0176
▁lump	-12.0176
▁illitera	-12.0176
▁leupro	-12.0176
▁holiday	-12.0176
▁obesity	-12.0176
▁epithelioma	-12.0176
▁biochemistry	-12.0176
▁>/=55%	-12.0176
▁hamper	-12.0176
▁goi	-12.0176
▁thickening	-12.0176
11-25)	-12.0176
▁190	-12.0176
▁anatomy	-12.0176
▁eliminate	-12.0176
▁erythropo	-12.0176
▁fgfr	-12.0176
▁alcoholism	-12.0176
▁>2.2)	-12.0177
ncictc	-12.0177
▁morphine	-12.0177
▁ontak	-12.0177
▁fiona	-12.0177
▁pump	-12.0177
▁gallen	-12.0178
antacid	-12.0178
-2206	-12.0178
▁detachment	-12.0178
▁rifa	-12.0178
ifene	-12.0179
▁authority	-12.0179
eiae	-12.0179
▁interferons	-12.0179
unl	-12.0179
▁manner	-12.018
plicate	-12.018
▁inherit	-12.018
▁5.7.2	-12.0181
▁cdp	-12.0182
tidine	-12.0182
cifero	-12.0183
▁cyclo	-12.0183
vino	-12.0183
▁6.7	-12.0184
▁finger	-12.0184
▁teaspoon	-12.0185
▁anatomic	-12.0185
ssible	-12.0185
igate	-12.0185
▁devi	-12.0185
ithromycin	-12.0186
▁probably	-12.0186
ploy	-12.0187
ex	-12.0187
▁younger	-12.0187
▁ablation	-12.0187
struction	-12.0188
▁38.9	-12.0188
▁diathes	-12.0188
alk	-12.0189
▁height	-12.019
qpcr	-12.019
emetic	-12.0192
▁couma	-12.0192
gov	-12.0194
▁14/41	-12.0194
▁obvious	-12.0194
▁glutamine	-12.0194
promis	-12.0194
▁analgesia	-12.0195
▁endometrium	-12.0195
▁39/22	-12.0196
▁progestins	-12.0198
▁quadrants	-12.0199
▁circumstances	-12.0199
salicylate	-12.0199
▁embolis	-12.02
▁book	-12.0201
▁justified	-12.0201
smokers	-12.0201
▁prepar	-12.0202
arche	-12.0203
▁18/36	-12.0204
▁5.7.1	-12.0204
▁complain	-12.0207
▁dosimetry	-12.0208
▁expos	-12.0208
▁recruiter	-12.0209
gible	-12.021
▁requested	-12.021
▁(31.5	-12.021
▁amino	-12.0211
ength	-12.0211
▁statement	-12.0211
cath	-12.0212
▁iodi	-12.0213
-011	-12.0213
aspar	-12.0214
otomy	-12.0214
▁milliliters	-12.0215
secret	-12.0215
monia	-12.0215
▁adhe	-12.0216
▁prospectively	-12.0216
▁>50%	-12.0217
▁<1.0	-12.0217
iandro	-12.0218
abine	-12.0218
▁#3	-12.0221
igeminy	-12.0222
▁spe	-12.0222
dissect	-12.0222
gics	-12.0224
▁2016	-12.0226
▁(27.7	-12.0226
27/36	-12.0226
▁constructed	-12.0226
▁hold	-12.0227
▁69/3	-12.0228
idazol	-12.0229
traconazole	-12.023
▁[<	-12.0231
▁variants	-12.0231
gression	-12.0231
▁faint	-12.0231
sensiti	-12.0231
▁histo	-12.0233
squam	-12.0235
▁yrs	-12.0237
▁acet	-12.0237
thrombophlebitis	-12.024
▁13.7	-12.0242
minase	-12.0242
▁(14.0	-12.0243
▁7/37	-12.0243
2/18	-12.0243
lateral	-12.0244
april	-12.0245
sish	-12.025
▁chole	-12.025
▁-90.	-12.0251
angiogenic	-12.0251
▁rand	-12.0252
▁publi	-12.0253
▁4/14	-12.0259
posing	-12.0261
150/100	-12.0262
0-2	-12.0267
▁parent	-12.027
▁memor	-12.0273
▁disabl	-12.0275
])}	-12.0277
▁[3]2/	-12.0279
▁ligand	-12.028
tumour	-12.0281
▁(18.0	-12.0283
▁ery	-12.0285
▁extrem	-12.0287
▁silver	-12.029
ncompa	-12.029
▁allografts	-12.0293
▁(17.6	-12.0296
llow	-12.0296
▁assoc	-12.0296
▁antimetabolite	-12.0297
▁cardiotoxic	-12.0298
-24	-12.03
▁25/36	-12.0301
eth	-12.0301
▁3/13	-12.0303
tre	-12.0303
arli	-12.0307
uft	-12.0308
ject	-12.0309
kening	-12.031
▁androgens	-12.0311
▁38.3	-12.0312
▁gem	-12.0312
▁5.3	-12.0313
1.02	-12.0317
▁(>/=)	-12.0318
0.37	-12.032
▁neg	-12.032
▁cytokines	-12.0324
determinat	-12.0329
▁3.68	-12.033
▁24.7	-12.0331
3/29	-12.0336
pathological	-12.0339
ibular	-12.0341
srg	-12.0345
ww	-12.0346
nic	-12.0353
▁[2]2/1	-12.0354
block	-12.0355
associat	-12.0358
0.75	-12.0358
stim	-12.0359
▁2007	-12.0363
▁falls	-12.0363
▁[2]1/43	-12.0364
▁sensiti	-12.0367
▁xrt	-12.0371
▁11.	-12.0374
▁adva	-12.0375
ophor	-12.0382
granulocyto	-12.0382
▁glucocorticoids	-12.0387
▁36/	-12.0388
▁(40.9	-12.0389
▁uti	-12.0389
bl	-12.0389
syl	-12.0389
roent	-12.039
▁2/127	-12.039
asco	-12.0391
▁avoided	-12.0391
oirr	-12.0395
▁infiltration	-12.0398
rena	-12.04
ress	-12.04
hic	-12.0403
vement	-12.0404
®]	-12.041
▁61.1	-12.0411
nant	-12.0412
▁dexa	-12.0412
irf	-12.0415
▁5/20	-12.0424
▁unf	-12.0433
▁[1]1/5	-12.0433
▁(29.4	-12.0434
▁6.4	-12.0434
▁communicat	-12.0436
▁hbsag	-12.0436
▁ranitidine	-12.0436
▁hispanic	-12.0437
▁balance	-12.0442
car	-12.0445
lly	-12.0447
▁4/40	-12.045
▁2002)	-12.0455
hron	-12.0456
terion	-12.0462
▁csa	-12.047
▁(22.2	-12.0471
ad	-12.0484
▁myelosuppressi	-12.0487
roduce	-12.0491
dys	-12.0495
zen	-12.0497
▁[1]1/3	-12.0498
▁(3.67	-12.0499
▁64/2	-12.0507
page	-12.0509
xine	-12.0512
ego	-12.0513
▁irb	-12.0515
▁(29.6	-12.0516
▁soc	-12.0518
▁meas	-12.0522
ently	-12.0538
▁applie	-12.0538
▁mbi	-12.0555
▁26/	-12.0559
▁spasm	-12.0565
sync	-12.0565
dication	-12.057
▁2-7	-12.0576
▁4.03	-12.0577
▁reading	-12.0577
droxy	-12.0581
▁tria	-12.0583
ique	-12.0583
▁pelvis	-12.0584
▁lhrh	-12.0586
▁58/2	-12.0586
▁30.8	-12.0592
nast	-12.0597
▁10/37	-12.06
bsa	-12.0604
▁embolisms	-12.0608
▁(21.2	-12.0608
▁[4]1/4	-12.0608
hydration	-12.0614
▁je	-12.0619
4.21	-12.062
ella	-12.0642
6.4%	-12.0643
bilit	-12.0652
▁mutations	-12.0656
cephal	-12.0658
rospectively	-12.0666
▁opening	-12.067
▁2013)	-12.0671
oid	-12.0675
hdr	-12.0678
reversible	-12.0683
2/22	-12.0689
sions	-12.0694
ention	-12.0704
▁equi	-12.0708
40-	-12.0709
▁bones	-12.0712
▁bon	-12.0721
▁pair	-12.0728
oxy	-12.0731
{(	-12.0738
▁zole	-12.0739
2/24	-12.0742
▁serve	-12.0743
▁7/29	-12.0753
▁fl	-12.0759
uction	-12.0761
▁3+)	-12.0764
rh	-12.0771
▁(30.1	-12.0776
▁emergent	-12.0777
▁>50	-12.0779
▁catheters	-12.0784
▁(21	-12.0785
olone	-12.0801
▁12/3	-12.0802
tmax	-12.0803
▁remove	-12.0805
dia	-12.0805
▁29/2	-12.0808
verte	-12.0816
5]	-12.0818
enti	-12.0825
ients	-12.0829
▁plat	-12.0833
bic	-12.0838
▁(13.8	-12.0847
ured	-12.0849
▁vaso	-12.0849
▁(2.73	-12.0851
▁(30.2	-12.0866
▁pri	-12.0867
▁nsclc	-12.0875
▁characteris	-12.0879
▁12/30	-12.0884
cep	-12.0885
298	-12.0888
▁325	-12.0889
eats	-12.0897
kle	-12.0899
▁31/1	-12.091
▁<35	-12.0911
▁hemo	-12.0916
▁86	-12.0918
whi	-12.0919
▁probabl	-12.0927
▁aspirat	-12.0929
▁3/15	-12.0943
▁centr	-12.0945
▁6/	-12.0945
.05	-12.0951
lements	-12.0961
udin	-12.0966
isation	-12.098
ha	-12.0992
pi	-12.0995
iron	-12.0996
▁notes	-12.1006
ascular	-12.1011
▁hrt	-12.1011
▁~1	-12.1016
▁tar	-12.1019
6/40	-12.1028
▁explorat	-12.1039
▁8/28	-12.1048
bup	-12.1055
fasci	-12.1055
▁dex	-12.1056
▁(19.2	-12.1056
▁(18.9	-12.1059
ureas	-12.1062
▁activ	-12.1062
▁(44.	-12.1063
2/29	-12.1077
▁pil	-12.1086
4.63	-12.1095
▁emp	-12.1097
eas	-12.1099
▁cellul	-12.11
onc	-12.1101
▁87.	-12.1114
▁electro	-12.1123
228	-12.1124
1/20	-12.1133
▁diets	-12.1136
▁thi	-12.1137
got	-12.1139
ibu	-12.114
7.1)	-12.115
llage	-12.1152
▁race	-12.1159
▁instruct	-12.1174
-21	-12.1174
1/35	-12.118
pre	-12.1185
angi	-12.1186
1/37	-12.1195
▁ban	-12.1197
rem	-12.1197
1.1.	-12.1199
▁perf	-12.1206
▁(90	-12.1215
chia	-12.1215
▁152	-12.1216
rol	-12.1219
▁(0.45	-12.1224
rub	-12.1233
▁diagnose	-12.1234
ronic	-12.124
▁minimize	-12.1242
-7)	-12.1246
▁unresect	-12.1259
divid	-12.1261
▁(53.	-12.1267
raf	-12.1267
▁proxim	-12.1269
np	-12.1269
▁8/12	-12.1272
▁um	-12.1284
▁8/11	-12.1285
.1%	-12.1288
izing	-12.1305
2/280	-12.1315
els	-12.1316
▁6/21	-12.1321
▁capab	-12.1341
4/20	-12.1348
▁vitamins	-12.1355
▁7.1	-12.1388
rap	-12.1398
5%.	-12.1403
▁2/280	-12.1407
▁smoke	-12.1416
▁106	-12.1418
orrhagi	-12.1427
▁porta	-12.1433
.).	-12.145
▁neoplas	-12.145
-4)	-12.1469
20	-12.1472
▁presents	-12.1472
inni	-12.1477
tid	-12.1479
011248)	-12.1495
▁regula	-12.1504
ppi	-12.1511
▁designate	-12.1512
align	-12.1524
▁dive	-12.1533
▁wi	-12.1541
pyrid	-12.1541
.85	-12.1542
▁caus	-12.1546
▁reve	-12.1549
▁2/18	-12.1553
▁tyr	-12.1559
▁poli	-12.1574
nk	-12.1577
.5*10^9	-12.1578
▁0/43	-12.159
8.57	-12.1591
▁intrav	-12.1612
3).	-12.1625
▁unsta	-12.1633
erosi	-12.1641
metic	-12.1643
▁47/	-12.1647
▁11-	-12.1654
termin	-12.1656
trea	-12.1656
▁95	-12.167
▁esc	-12.1682
▁meaning	-12.1687
otid	-12.1688
2/41	-12.1694
▁19.	-12.1701
▁mobi	-12.1704
accord	-12.1704
lipi	-12.1704
ermia	-12.1722
▁(-7	-12.1726
▁cis	-12.1728
pm	-12.1734
▁[3]0/1	-12.1736
▁108	-12.1739
parathyroidism	-12.1744
nuclei	-12.1748
▁(17	-12.1749
▁hf	-12.1755
▁9/29	-12.1761
▁intens	-12.1768
2+)	-12.177
▁19/3	-12.1774
▁<100,000	-12.1778
ett	-12.1788
3.1	-12.1793
ip	-12.1796
bcg	-12.1799
▁onco	-12.1804
▁138	-12.1806
io	-12.1806
▁medicin	-12.1809
▁[5]	-12.1815
3/35	-12.1823
▁99	-12.1831
▁[5	-12.1837
▁cec	-12.186
▁22.	-12.1869
▁104	-12.1879
▁neurosurge	-12.188
uc	-12.1881
oesophag	-12.1882
▁(13.2	-12.1886
▁hyperth	-12.1887
305	-12.1887
omo	-12.1906
▁-2.	-12.1911
▁mann	-12.1917
▁*0/	-12.1928
▁bip	-12.1939
▁(25-	-12.1944
-77	-12.1949
▁dist	-12.1951
▁450	-12.1954
0/163	-12.1959
▁6.3	-12.1977
▁dar	-12.1992
opath	-12.1994
▁8/4	-12.1996
144	-12.2003
dian	-12.2004
profe	-12.2014
.20	-12.2017
206	-12.202
yne	-12.2025
▁(21.	-12.2044
rim	-12.2047
▁bil	-12.2054
sti	-12.207
▁79.	-12.2086
oxygen	-12.209
▁4/30	-12.2108
logs	-12.211
our	-12.2121
▁(4.21	-12.2127
ht	-12.2132
-01	-12.2134
ild	-12.2134
ival	-12.215
fin	-12.2153
▁db	-12.2154
▁sep	-12.216
ceta	-12.2167
xx	-12.2176
▁predi	-12.2189
▁nitro	-12.2206
tus	-12.2231
0-120	-12.2239
nct	-12.224
▁247	-12.2245
▁designe	-12.2249
▁dc	-12.2257
▁74	-12.2307
▁(5.6	-12.2311
▁behavio	-12.233
regular	-12.2334
lete	-12.2357
ncil	-12.2377
sld	-12.2382
ecal	-12.2383
▁gra	-12.2397
sure	-12.2403
.0])	-12.2446
olution	-12.2455
induce	-12.2477
ves	-12.2478
▁ve	-12.2482
▁285	-12.2514
▁90-	-12.2526
31.8	-12.253
44.4	-12.2536
▁neur	-12.2538
▁psychos	-12.2555
amic	-12.2566
▁causal	-12.2571
+++)	-12.2575
▁(37.7	-12.2576
▁10/2	-12.2577
ipas	-12.2597
▁(7.0	-12.2603
0/23	-12.2605
▁5.	-12.2635
onucle	-12.266
▁3/16	-12.2663
▁flud	-12.2671
▁4/36	-12.2671
▁fis	-12.268
▁nodul	-12.2688
▁10)	-12.271
)(	-12.2717
nse	-12.2723
▁predict	-12.2726
▁6/2	-12.2731
▁69.	-12.2734
▁varice	-12.2736
sent	-12.274
20.9	-12.2743
idimensional	-12.2748
.9	-12.276
▁64.	-12.277
▁13/2	-12.278
▁cremophore	-12.2788
guide	-12.2788
licit	-12.2789
mens	-12.2802
.25	-12.282
▁[3]1/2	-12.2829
0-1	-12.2832
hrombocytopenia	-12.2844
▁7%	-12.285
bicr	-12.2855
erbal	-12.2856
ids	-12.2858
▁una	-12.2887
11/36	-12.2891
.8	-12.2894
[	-12.2918
9.5	-12.2942
rc	-12.2943
gn	-12.295
▁1,7	-12.2951
docm	-12.2954
draw	-12.2965
8/28	-12.2971
▁seve	-12.2978
▁seconds	-12.2979
▁simul	-12.298
bilirubin	-12.2983
▁stent	-12.3004
▁cavit	-12.3005
tux	-12.3024
tu	-12.3044
▁involve	-12.3048
.91	-12.3058
/36	-12.3059
lapsed	-12.3061
▁160/	-12.3086
5/50	-12.3097
▁ne	-12.3098
18.	-12.3124
iu	-12.3127
▁(25.9	-12.3134
▁12-	-12.3135
1/57	-12.3136
physical	-12.3141
▁35.	-12.3149
8.5	-12.3151
cardiogram	-12.3151
216	-12.3169
▁desc	-12.3172
0,000/	-12.3182
tol	-12.3214
▁2/35	-12.3228
abraxane	-12.3235
cat	-12.3238
/14	-12.3238
aspiration	-12.3239
mucositis	-12.325
atib	-12.3251
▁117/	-12.3259
mean	-12.3264
35%	-12.3269
gyl	-12.327
gender	-12.3276
select	-12.3277
via	-12.3278
suitable	-12.3278
▁47	-12.3279
ver	-12.3291
tub	-12.3296
vul	-12.3326
▁ana	-12.3344
▁pg	-12.3345
uzumab	-12.3347
▁(-9	-12.3352
▁1/43	-12.3358
fields	-12.336
gan	-12.3367
nder	-12.3376
3.2	-12.3377
lus	-12.3388
▁compet	-12.34
ender	-12.3402
▁lymphoc	-12.3414
▁(1.13	-12.3424
asian	-12.3427
▁6/6	-12.3432
omy	-12.3433
▁procedur	-12.3437
151	-12.3452
▁milliliter	-12.3455
▁infant	-12.3466
▁4/4	-12.3468
▁recover	-12.3471
4.44	-12.3492
esthesia	-12.3495
▁aliment	-12.3505
rifampi	-12.3508
▁constitute	-12.3509
▁ispinesib	-12.3509
▁lisinopril	-12.3509
▁poisoning	-12.3509
▁british	-12.3509
‚	-12.3509
▁channel	-12.3509
▁0.037	-12.3512
▁psychotherapy	-12.3513
▁depressed	-12.3514
▁embolic	-12.3516
▁thrombolic	-12.3516
▁kind	-12.3519
tonin	-12.3519
▁38.43	-12.3524
▁sept	-12.3529
▁(42.86%)	-12.3531
▁mark	-12.3532
▁ace	-12.3534
damage	-12.3538
▁56/1	-12.354
▁strict	-12.3543
▁diuretics	-12.3544
separate	-12.3556
▁maleate	-12.3556
tasis	-12.3564
oxyl	-12.3568
▁(1500	-12.357
▁des	-12.3573
▁thro	-12.3583
lopia	-12.3585
racil	-12.3585
adone	-12.3594
▁manda	-12.3597
hydro	-12.36
▁50,000	-12.3607
fertil	-12.361
edge	-12.3616
▁bur	-12.3617
▁mobility	-12.3623
▁sm	-12.3635
2).	-12.3637
amil	-12.3648
▁(42	-12.3653
1500/	-12.3656
▁reliab	-12.3659
▁tu	-12.3662
get	-12.3664
resectable	-12.3672
sufficient	-12.3674
▁(~	-12.3682
possible	-12.3695
▁10/	-12.3709
parp	-12.3711
▁abstain	-12.3714
109	-12.3714
inder	-12.3724
▁<60	-12.3727
eru	-12.3736
▁preserv	-12.3745
vid	-12.3752
▁registr	-12.3753
▁war	-12.3764
▁comparisons	-12.3772
amp	-12.3775
▁5/6	-12.3786
▁interve	-12.3792
1/68	-12.3795
5/14	-12.38
they	-12.3805
▁smaller	-12.3819
app	-12.3826
▁(27.9	-12.3871
tel	-12.3876
enhanc	-12.3879
▁submi	-12.3881
▁30/1	-12.3888
▁utilise	-12.3891
iza	-12.3892
▁15/	-12.3893
domina	-12.3904
▁persiste	-12.3908
▁sli	-12.392
ss	-12.3927
dal	-12.3933
▁fev	-12.3936
ette	-12.3936
124	-12.3945
▁sev	-12.3958
itidine	-12.397
▁vita	-12.3972
imply	-12.3972
▁sequenc	-12.3976
.66	-12.398
comp	-12.3984
rable	-12.3996
.64	-12.4001
ula	-12.4017
nutrition	-12.4021
bike	-12.4023
▁28/	-12.4029
▁16.6	-12.4029
edron	-12.403
▁bo	-12.4032
rgent	-12.4036
op	-12.4039
reconstruct	-12.406
▁asses	-12.4062
▁101	-12.4072
▁mino	-12.4072
0/11	-12.4078
gment	-12.4084
ilat	-12.4086
▁*2/7	-12.4087
▁53.5	-12.4088
nize	-12.4128
▁24/3	-12.4137
bet	-12.414
50,000	-12.4145
▁4/10	-12.415
5.4	-12.415
▁stra	-12.4163
▁(3.9	-12.4165
/74	-12.419
▁lit	-12.4209
0/280	-12.4211
▁sci	-12.4214
.57	-12.4215
▁2-1	-12.4227
ionary	-12.4227
bb	-12.4233
▁[1]0/2	-12.4239
106	-12.4243
▁(29	-12.4258
▁calcul	-12.4274
etting	-12.4285
nti	-12.4294
▁format	-12.4371
▁detection	-12.4393
.29	-12.4395
▁0/280	-12.4399
/2	-12.4412
rolimus	-12.4414
▁protocols	-12.4422
1.34	-12.4442
egal	-12.4455
▁thromboly	-12.4456
ese	-12.4509
▁7/	-12.4514
1200	-12.4522
dule	-12.4528
seer	-12.4532
3/218	-12.4534
▁(30.	-12.454
21)	-12.4553
tified	-12.4559
▁2/36	-12.4574
affi	-12.4586
▁8-1	-12.4587
175	-12.461
▁quantit	-12.4634
▁man	-12.4634
7/38	-12.4636
▁mammo	-12.4639
▁user	-12.4651
ln	-12.4662
/5	-12.4663
▁great	-12.468
0.4	-12.468
▁meta	-12.4713
ers	-12.4737
▁24/1	-12.4757
2.73	-12.477
▁(4)	-12.4776
▁10/4	-12.4781
▁wal	-12.4787
▁here	-12.481
▁-71	-12.481
rot	-12.4812
▁6/10	-12.4814
than	-12.4817
▁ut	-12.482
embr	-12.4826
▁10/3	-12.483
▁(10.1	-12.4836
appearing	-12.4853
▁mar	-12.4859
▁16.3	-12.4859
cta	-12.486
▁regi	-12.4864
▁han	-12.4869
▁amo	-12.4887
▁<90	-12.4888
magnet	-12.4902
thin	-12.4913
yt	-12.4917
dpd	-12.4938
orange	-12.4969
▁-73	-12.4991
▁differentiat	-12.4996
1.18	-12.5018
orti	-12.5027
▁epid	-12.5029
+).	-12.5046
▁eic	-12.5046
4.2	-12.506
▁participat	-12.5066
.68%)	-12.5071
.9%	-12.5074
bia	-12.508
▁gau	-12.5081
1/73	-12.5101
10.8	-12.5108
8.	-12.5114
trexate	-12.513
▁suspe	-12.5148
monal	-12.5149
rr	-12.5173
▁ru	-12.5194
20.0	-12.5197
7/7	-12.5216
nsion	-12.5236
tul	-12.5296
6.6	-12.5296
gent	-12.5312
coa	-12.532
ller	-12.5322
clear	-12.5327
swell	-12.5341
esthe	-12.5344
-80	-12.5364
▁disti	-12.5378
therapies	-12.5383
▁*1/	-12.5406
dx	-12.5407
▁taxo	-12.5425
▁(200	-12.5431
6/16	-12.5438
cd	-12.5461
atu	-12.5466
72)	-12.5478
then	-12.5494
140	-12.5515
▁ideal	-12.5523
micron	-12.5523
omegaly	-12.5532
old	-12.5533
▁ext	-12.5542
nges	-12.5554
posit	-12.5559
13/18	-12.5563
reas	-12.5565
cceptable	-12.5567
▁ir	-12.5583
▁+++	-12.5587
ived	-12.5597
▁possibl	-12.5633
ates	-12.5637
▁wo	-12.5638
ze	-12.5646
6/18	-12.5649
earance	-12.5654
▁157	-12.5679
pair	-12.5685
irc	-12.5692
▁*2/	-12.5694
/6	-12.5698
▁78	-12.5699
▁lympha	-12.57
▁<3	-12.5713
▁dermato	-12.5724
hyper	-12.5735
sfi	-12.5739
traindications	-12.5762
▁9/3	-12.5779
.06	-12.5788
▁rac	-12.5788
▁7.3	-12.5795
00/	-12.5797
▁++	-12.5823
prov	-12.5833
var	-12.5841
entric	-12.5841
mrm	-12.5852
traction	-12.5866
▁dependen	-12.5873
▁trea	-12.5904
▁rib	-12.5905
.94	-12.591
▁98	-12.5913
bitu	-12.5918
bcc	-12.5936
lon	-12.5946
ring	-12.5946
▁8/	-12.5955
ions	-12.5957
sum	-12.5958
han	-12.5975
-3)	-12.5989
persist	-12.6011
bur	-12.6016
iopharmaceutical	-12.603
spect	-12.606
5.3	-12.6072
arge	-12.6125
eep	-12.6127
▁opportuni	-12.6128
ele	-12.6128
▁mammograph	-12.615
▁(5.70	-12.6156
tial	-12.6185
▁64/	-12.6193
▁49.	-12.6194
▁4.9	-12.6198
tin	-12.6222
uld	-12.6239
asses	-12.6275
<=30	-12.6277
ficienc	-12.6289
eight	-12.6296
▁59/	-12.6331
▁2.0)	-12.6337
▁hormones	-12.637
sive	-12.6396
▁<45	-12.6399
▁few	-12.6402
▁(8.4	-12.6406
▁7.7	-12.6416
mab	-12.6427
▁50.	-12.6439
▁mobili	-12.647
28/4	-12.6485
erm	-12.6493
▁47.	-12.6519
▁physiologic	-12.652
▁sol	-12.6521
rate	-12.6528
▁4/28	-12.6537
▁(3.36	-12.654
▁66/1	-12.6546
medi	-12.6547
fic	-12.6548
▁ba	-12.6569
1.19	-12.6575
▁resu	-12.6594
ifoli	-12.6613
ark	-12.6613
onucl	-12.6627
ome	-12.6636
3.5	-12.6641
cluding	-12.6651
/20	-12.6656
ratio	-12.6664
will	-12.6696
▁27.	-12.6717
dre	-12.6719
▁beat	-12.672
▁prop	-12.6727
arent	-12.6742
entine	-12.6771
▁react	-12.6798
ants	-12.68
ened	-12.6804
▁<2.	-12.6813
progression	-12.6829
urin	-12.6836
oxant	-12.6851
▁amend	-12.6859
▁nan	-12.6867
1.9	-12.6872
pha	-12.6878
hel	-12.6907
9%	-12.6929
adequate	-12.6967
▁eligi	-12.697
ided	-12.6981
▁inflat	-12.6994
▁6.9	-12.6999
▁arter	-12.7022
nc	-12.7039
verb	-12.7043
gh	-12.7044
normal	-12.7067
▁20.0	-12.7067
▁69/	-12.7079
0.9	-12.7088
▁ech	-12.7092
syn	-12.7102
▁cal	-12.7116
40%	-12.7119
3/43	-12.7128
▁zi	-12.7129
ke	-12.7129
radiation	-12.7129
▁pap	-12.7135
2.6	-12.7138
main	-12.7152
▁53	-12.7185
3.4	-12.7185
fer	-12.7188
▁2,000	-12.7192
ice	-12.7197
▁echocardiograph	-12.7203
cs	-12.7223
1.1).	-12.7236
uic	-12.7263
▁lie	-12.7269
(140	-12.729
▁dur	-12.731
fac	-12.732
▁stro	-12.7329
▁genera	-12.733
pat	-12.7333
{	-12.7335
+)]	-12.7366
<2.0)	-12.7368
▁59/1	-12.7383
hematological	-12.7384
lendron	-12.7387
dden	-12.7404
ecta	-12.7407
lone	-12.7411
1.3	-12.7413
5.36	-12.7422
hav	-12.7441
max	-12.7443
cyli	-12.7469
0-80	-12.7481
▁refuse	-12.7491
porta	-12.7497
▁geographic	-12.7498
98)	-12.7499
/12	-12.7508
0,000	-12.7517
omat	-12.7531
performance	-12.7566
▁56/	-12.7569
70%)	-12.7576
alkalo	-12.7587
▁[4]1/	-12.7598
reasonabl	-12.7629
mply	-12.7648
0/36	-12.7649
▁(72	-12.7657
3/34	-12.766
▁opt	-12.7663
arch	-12.7665
tho	-12.7667
▁(50	-12.7669
-02	-12.7679
tt	-12.769
histologically	-12.7722
nausea	-12.7746
actin	-12.7747
3/45	-12.7756
▁(>3	-12.7759
sca	-12.7773
▁29.	-12.7774
synthe	-12.7798
may	-12.7806
myocardi	-12.7815
▁ny	-12.7818
malignancy	-12.7821
▁117	-12.7837
fibrillation	-12.784
plt	-12.7842
▁communi	-12.7845
eta	-12.7847
female	-12.7852
last	-12.7869
liter	-12.7874
rom	-12.7876
tation	-12.789
▁reside	-12.789
laboratory	-12.7891
mon	-12.7895
performed	-12.7896
lian	-12.7906
clinically	-12.7916
▁ste	-12.793
left	-12.7932
▁[>	-12.7935
▁100*	-12.7946
▁(-2	-12.7949
▁shorte	-12.7952
therapeutic	-12.7952
endocrine	-12.7953
▁148	-12.7959
intra	-12.7972
combination	-12.7996
au	-12.8001
pit	-12.8002
regimen	-12.8011
▁(0.85	-12.8015
▁od	-12.802
locally	-12.8024
adenocarcinoma	-12.8027
3]	-12.803
hepatitis	-12.8033
past	-12.8038
▁aga	-12.8044
eribulin	-12.8054
-25.	-12.8056
coronary	-12.8062
taxane	-12.8065
ips	-12.8072
squamous	-12.8075
▁hypercoagula	-12.8077
ipsilateral	-12.808
psychiatric	-12.8091
volv	-12.8097
discontinued	-12.8098
withdrawal	-12.8099
82%	-12.8099
tumors	-12.81
▁onse	-12.8105
nodes	-12.8107
▁41/	-12.8109
cytopenia	-12.8112
cyclic	-12.8112
evaluated	-12.8118
present	-12.8122
itude	-12.8128
replacement	-12.8129
report	-12.8132
agree	-12.8132
maxilla	-12.8133
cis	-12.8136
hemorrhage	-12.8136
mammography	-12.8143
▁adequa	-12.8147
tra	-12.8148
epirubicin	-12.8157
androgen	-12.8159
when	-12.8162
tablet	-12.8165
platelets	-12.8168
density	-12.8169
premenopausal	-12.8172
factor	-12.8173
topical	-12.8174
▁prog	-12.8176
effects	-12.8177
recovered	-12.818
blocker	-12.8181
▁magn	-12.8183
vaginal	-12.8183
boost	-12.8183
pertuzumab	-12.8185
qualify	-12.8185
reduction	-12.8187
level	-12.8191
abstinence	-12.8192
multiple	-12.8195
duration	-12.8197
ney	-12.8198
^2.	-12.8198
thyroid	-12.8199
sunitinib	-12.8203
anthracycline	-12.8205
physiologic	-12.8208
▁[2]1/4	-12.821
recovery	-12.8214
quantit	-12.8215
work	-12.8216
transfusion	-12.8217
lymphocyte	-12.8218
common	-12.8219
albumin	-12.8221
dementia	-12.8224
impair	-12.8225
▁2013	-12.8225
overexpression	-12.8226
strong	-12.8226
erbi	-12.8227
includes	-12.8228
spir	-12.8229
male	-12.8231
inoculation	-12.8231
nipple	-12.8233
correct	-12.8234
implant	-12.8234
explor	-12.8236
pacemaker	-12.8237
zubrod	-12.8238
unilateral	-12.824
cream	-12.8241
assay	-12.8241
attribut	-12.8241
osteo	-12.8242
degree	-12.8242
comorbid	-12.8242
dehydro	-12.8243
independent	-12.8243
famil	-12.8243
asthma	-12.8244
▁potentia	-12.8245
third	-12.8245
influenza	-12.8246
phosphat	-12.8246
sorafenib	-12.8246
[(	-12.8246
mmhg	-12.8247
pegfilgrastim	-12.8247
cockcroft	-12.8247
lupus	-12.8248
acquired	-12.8248
arrhythmias	-12.8248
weak	-12.8249
▁pow	-12.8249
supportive	-12.825
palliati	-12.8251
antimetabolite	-12.8251
temsirolimus	-12.8252
self	-12.8252
energy	-12.8253
silver	-12.8255
immediate	-12.8255
schizophrenia	-12.8255
cardiotoxic	-12.8256
inhale	-12.8256
perflutren	-12.8256
cimetidine	-12.8256
dyspepsia	-12.8256
mitomycin	-12.8257
paraffin	-12.8257
missing	-12.8257
borderline	-12.8258
location	-12.8258
luteinizing	-12.8258
veliparib	-12.8258
extrem	-12.826
vasectomy	-12.826
trametinib	-12.826
affected	-12.8261
electrolyte	-12.8261
comparable	-12.8261
archived	-12.8261
carbonate	-12.8262
longer	-12.8262
4/9	-12.8262
slides	-12.8262
(+/-	-12.8263
wait	-12.8264
preferred	-12.8264
qtcf	-12.8264
biotherapy	-12.8265
nadir	-12.8267
thrombo	-12.8267
space	-12.8268
<1.5	-12.8268
amprenavir	-12.8269
(72	-12.827
▁suff	-12.8272
trans	-12.8272
omeprazole	-12.8274
ligand	-12.828
specimens	-12.8281
)}/	-12.8282
1.51	-12.8284
fluo	-12.8284
▁lympho	-12.8284
gland	-12.829
proc	-12.8294
measured	-12.8295
identifi	-12.8296
peritone	-12.8297
▁pharma	-12.8303
▁progress	-12.8304
▁mic	-12.8305
(>	-12.8309
▁pp	-12.831
izes	-12.8312
post	-12.8313
conservation	-12.8316
intended	-12.8318
0/30	-12.8319
androgens	-12.8321
akt	-12.8326
reduc	-12.8326
kes	-12.8327
fl	-12.8328
▁cer	-12.8333
topic	-12.8344
black	-12.8348
▁admi	-12.8349
eviden	-12.8353
oxide	-12.8354
tool	-12.8356
progress	-12.8357
▁advers	-12.8357
biological	-12.8361
beta	-12.8363
3/36	-12.8367
availab	-12.8369
colon	-12.837
lastic	-12.8383
.38	-12.8385
aut	-12.8391
macro	-12.8392
elevat	-12.8392
▁4.6	-12.8393
▁embol	-12.8396
site	-12.8397
▁amenorrh	-12.8398
span	-12.84
bun	-12.8402
▁25/3	-12.8404
▁phleb	-12.841
▁modif	-12.8415
▁hemorrhag	-12.8416
intent	-12.842
▁nu	-12.842
▁[4]	-12.8422
naprox	-12.8424
▁relaps	-12.8425
▁75,000	-12.8426
▁prol	-12.8427
▁writ	-12.8427
▁0.05	-12.8433
couraged	-12.8435
rela	-12.8438
▁analyze	-12.8443
string	-12.8445
(0.5	-12.8446
▁diuretic	-12.8452
▁emergen	-12.8454
▁circumstance	-12.8455
▁quadrant	-12.8455
▁bandag	-12.8457
▁progestin	-12.8458
▁migraine	-12.8459
▁millisecond	-12.8459
▁guideline	-12.8461
soy	-12.8462
condoms	-12.8464
▁slide	-12.8465
▁provi	-12.8469
▁utili	-12.847
▁breastfeed	-12.8471
▁fulfil	-12.8471
▁thrombocyt	-12.8474
trac	-12.8474
▁recommend	-12.8477
▁70.	-12.8479
▁transfer	-12.8481
▁adjust	-12.8481
▁manifest	-12.8485
tribut	-12.8487
▁circu	-12.8488
oven	-12.8489
▁nause	-12.8489
▁parenchyma	-12.8492
▁korea	-12.8492
angiogen	-12.8495
▁vasectom	-12.8496
▁manu	-12.8496
▁prohib	-12.8497
▁experie	-12.8499
▁deficienc	-12.85
▁salping	-12.8501
arrow	-12.8502
▁doub	-12.8502
fficient	-12.8504
enz	-12.8505
▁neutrop	-12.8506
▁substan	-12.8507
▁discret	-12.8507
nes	-12.8507
▁erythro	-12.8507
ricul	-12.8507
croscopic	-12.8508
thrombin	-12.8508
eceptors	-12.8508
▁trastuz	-12.8508
qualitative	-12.8508
▁hybrid	-12.8509
pivacaine	-12.8509
onamides	-12.8509
chloride	-12.8509
bociclib	-12.8509
?	-12.8509
ecoxib	-12.8509
ectasia	-12.8509
¥	-12.8509
§	-12.8509
±	-12.8509
à	-12.8509
é	-12.8509
ó	-12.8509
▁frequencies	-12.8509
▁hemophilia	-12.8509
lopram	-12.8509
grastim	-12.8509
▁anthrac	-12.8509
▁nefaz	-12.8509
▁sienna	-12.8509
ä	-12.8509
ñ	-12.8509
nazol	-12.8509
thasone	-12.8509
okines	-12.8509
▁assign	-12.8509
▁stomat	-12.8509
arthri	-12.851
▁crash	-12.851
uvant	-12.851
▁thyro	-12.851
▁resistan	-12.851
medica	-12.8511
fosam	-12.8511
leukin	-12.8511
infecti	-12.8512
mestane	-12.8512
morbidity	-12.8512
omycin	-12.8512
▁egf	-12.8513
▁necessar	-12.8513
emesis	-12.8513
close	-12.8513
uracil	-12.8514
▁napro	-12.8514
condi	-12.8514
▁adj	-12.8515
colle	-12.8515
▁jo	-12.8516
pnea	-12.8516
roft	-12.8518
▁100*10	-12.8518
cripti	-12.8521
▁break	-12.8521
▁tachy	-12.8524
izer	-12.8524
adv	-12.8525
▁valvul	-12.8525
▁1.5*10	-12.8525
ercept	-12.8526
logist	-12.8526
ulop	-12.8528
▁mastectom	-12.8528
1.5%	-12.8528
▁sara	-12.8529
▁circum	-12.853
meric	-12.8531
ield	-12.8531
dbac	-12.8531
atogen	-12.8531
axis	-12.8532
ockin	-12.8533
pants	-12.8533
abolic	-12.8533
▁cock	-12.8534
stane	-12.8534
▁exem	-12.8535
▁bandage	-12.8535
▁inducer	-12.8536
▁alternat	-12.8536
▁hercept	-12.8536
▁tript	-12.8536
amycin	-12.8536
micid	-12.8536
olitis	-12.8537
xamine	-12.8541
hosphamide	-12.8542
▁relation	-12.8542
▁sln	-12.8542
▁cyclosp	-12.8543
rki	-12.8544
rvo	-12.8547
▁tach	-12.8549
azine	-12.8549
ency	-12.8551
▁(46	-12.8552
erapy	-12.8552
clopid	-12.8554
onj	-12.8556
relin	-12.8559
▁(4.9	-12.856
anish	-12.856
opurin	-12.8562
▁oxa	-12.8563
cha	-12.8564
▁sj	-12.8567
loc	-12.8567
rrh	-12.8568
tases	-12.8569
phlebitis	-12.8571
cities	-12.8572
7/29	-12.8572
crit	-12.8574
67/7	-12.8574
▁feasib	-12.8574
afen	-12.8575
hetero	-12.8577
▁dexam	-12.8577
17.7	-12.8578
▁ref	-12.8578
prolo	-12.8579
peg	-12.858
ligo	-12.8582
▁moda	-12.8582
lower	-12.8582
ositis	-12.8583
▁survive	-12.8584
avir	-12.8586
icardi	-12.8589
▁impl	-12.8589
▁ja	-12.8592
▁exac	-12.8593
inoma	-12.8593
rbc	-12.8593
atic	-12.8594
▁tim	-12.8596
cia	-12.8597
mail	-12.86
▁complian	-12.8601
otropi	-12.8603
▁furt	-12.8603
gime	-12.8604
▁30.4	-12.8609
semi	-12.8612
lesion	-12.8612
nomic	-12.8616
some	-12.8617
pregna	-12.8622
▁frid	-12.8623
▁analys	-12.8627
ffusion	-12.8629
bloo	-12.863
sorb	-12.863
▁spasming	-12.863
▁lev	-12.8631
▁calculate	-12.8632
poten	-12.8633
▁58/	-12.8635
4/	-12.8636
olac	-12.8639
sta	-12.8648
ortun	-12.8649
mobility	-12.865
tests	-12.8651
thesis	-12.8652
bsc	-12.8652
tological	-12.8654
tac	-12.8657
▁gram	-12.8661
▁phy	-12.8664
▁admin	-12.8667
ferent	-12.8673
phage	-12.8674
gra	-12.8678
36.2	-12.868
▁eviden	-12.8683
▁macro	-12.8684
dolo	-12.869
▁erythematos	-12.8694
ectin	-12.8697
▁dysp	-12.8704
gpt	-12.8704
▁nitros	-12.8706
eve	-12.8714
topenia	-12.8714
▁1.5*	-12.8716
alkal	-12.872
▁rang	-12.8726
▁(14.2	-12.8728
2.86	-12.8728
tam	-12.8729
iiic	-12.8731
enzy	-12.8735
▁squ	-12.8738
ches	-12.8739
▁0.00	-12.874
▁inoculation	-12.8741
bres	-12.8745
fib	-12.8746
▁histologi	-12.8748
lism	-12.8751
▁anticoagulat	-12.8752
▁androgen	-12.8752
/53	-12.8753
▁char	-12.8755
rater	-12.8757
sarcoma	-12.8761
ggest	-12.8762
initiat	-12.8762
▁1:1	-12.8768
▁polyso	-12.8769
cer	-12.8772
hf	-12.8778
▁phosphat	-12.8778
acent	-12.878
retin	-12.8781
▁sn	-12.8782
scale	-12.8784
▁neoad	-12.8788
fact	-12.8794
esib	-12.8796
▁reduct	-12.8798
▁span	-12.8802
▁cla	-12.8802
ietin	-12.8811
▁fact	-12.8813
▁(1000	-12.8817
thre	-12.8818
ries	-12.8818
ucer	-12.8819
▁foll	-12.8827
cohorts	-12.8827
[1	-12.8829
rhage	-12.883
inac	-12.8832
eros	-12.8834
▁2/13	-12.8838
recei	-12.8839
lvi	-12.8844
enia	-12.8845
cystitis	-12.8846
bef	-12.8856
came	-12.8857
apart	-12.8861
ubic	-12.8877
▁gas	-12.8889
luoropyrimidines	-12.889
▁stopp	-12.8902
▁restricti	-12.8904
▁depr	-12.8907
cerebro	-12.8907
ocks	-12.891
ace	-12.8916
fmo	-12.8916
▁85/	-12.8917
zin	-12.8919
hem	-12.8924
▁dys	-12.894
pld	-12.8947
bling	-12.8948
tions	-12.895
▁radiot	-12.896
cci	-12.8962
hormones	-12.8963
stration	-12.8965
rator	-12.8968
▁seropositiv	-12.897
102	-12.8972
mist	-12.8978
peer	-12.8979
▁axillar	-12.8985
▁[1]1/8	-12.8985
rich	-12.8988
2/14	-12.8999
▁hel	-12.9002
inavir	-12.9003
ukin	-12.9015
▁lact	-12.9016
▁0,1	-12.9018
yrs	-12.9018
5,000/	-12.9019
<2	-12.9027
amb	-12.9029
▁sche	-12.9033
gren	-12.9035
▁tre	-12.9036
▁44	-12.9036
▁2).	-12.9059
5.26	-12.9068
ibc	-12.9069
mental	-12.9083
▁(47	-12.9083
iden	-12.9086
arox	-12.9087
ocytopenia	-12.9089
reg	-12.9108
ds	-12.9111
▁fle	-12.9112
gnosis	-12.9113
mino	-12.913
▁blo	-12.9131
wb	-12.9144
▁pal	-12.9151
▁pai	-12.9158
itors	-12.9158
mpl	-12.9159
/90	-12.9168
▁>48	-12.9174
▁28.5	-12.918
▁eco	-12.9186
ifero	-12.9194
ntl	-12.9219
dex	-12.9224
esyl	-12.9224
infor	-12.9226
▁disor	-12.9232
ppr	-12.9232
.2	-12.924
hylprednisolone	-12.9247
fractionat	-12.9249
fusion	-12.9257
vas	-12.9272
▁tum	-12.9279
occurre	-12.9282
2.27	-12.9284
▁incomp	-12.9291
prep	-12.9298
doses	-12.9306
▁.	-12.9308
evi	-12.9312
▁obst	-12.9317
▁relat	-12.9324
▁inje	-12.9325
4/86	-12.9325
pate	-12.9329
▁aid	-12.9329
29.7	-12.9332
▁(4.95%).	-12.9335
▁yr	-12.9349
hon	-12.935
pine	-12.9351
ua	-12.936
▁*1/2	-12.9384
tered	-12.939
▁antiangi	-12.9398
▁caps	-12.9403
▁evaluati	-12.9407
▁(+)	-12.9407
▁pf	-12.941
mulation	-12.9411
art	-12.9413
rone	-12.9414
▁hum	-12.9419
servation	-12.9429
receptors	-12.9435
▁[(	-12.9439
▁haematolog	-12.9445
reve	-12.9447
modifi	-12.9465
ors	-12.9465
sting	-12.9497
▁2,0	-12.9501
und	-12.9505
▁129	-12.9506
ong	-12.9521
▁biochemi	-12.9534
ospa	-12.9551
.86%)	-12.9551
pen	-12.9555
fas	-12.9555
▁dehydrat	-12.9582
lky	-12.9624
▁base	-12.9638
icr	-12.9647
▁cab	-12.9657
ude	-12.967
rige	-12.9679
/23	-12.9681
▁partic	-12.9684
▁postmenopaus	-12.9684
sol	-12.9699
▁retro	-12.97
ately	-12.9703
▁obs	-12.9705
4/36	-12.9705
rio	-12.971
▁conver	-12.9713
▁(++	-12.9718
testinal	-12.972
hyperbilirubin	-12.9722
<50	-12.9725
▁abo	-12.9728
faci	-12.973
reliabl	-12.973
mia	-12.9736
oxic	-12.974
▁reli	-12.9755
ember	-12.9757
antic	-12.9776
perf	-12.9776
gfr	-12.978
15/36	-12.9796
▁230	-12.9796
▁usa	-12.9808
omic	-12.9818
escription	-12.9831
thol	-12.9831
lide	-12.9843
▁infla	-12.9847
3/13	-12.9852
▁111	-12.9858
▁nc	-12.9867
crocalcification	-12.9878
▁suc	-12.9888
0(	-12.9894
llect	-12.9899
▁comm	-12.9906
mc	-12.9925
vio	-12.9927
.98	-12.9927
cording	-12.9932
ocyte	-12.9955
▁dx	-12.9978
▁wbrt	-12.999
▁lactat	-12.9994
metin	-13.0011
glyc	-13.002
▁sca	-13.002
essive	-13.0046
▁ri	-13.0055
og	-13.0057
asse	-13.0069
ococc	-13.0071
arb	-13.0077
29/4	-13.0079
ponse	-13.0089
325	-13.012
ded	-13.0145
isolat	-13.0172
acc	-13.0181
live	-13.0188
abilit	-13.0203
15%	-13.0204
▁22/6	-13.0207
zd	-13.0208
mad	-13.021
117	-13.0215
ital	-13.0221
llap	-13.0227
2.2	-13.0228
dine	-13.0235
pplied	-13.024
9/5	-13.0245
.03	-13.0255
onse	-13.0259
0.84	-13.0284
nso	-13.0298
▁gall	-13.0305
▁pec	-13.0306
erus	-13.0309
▁(14	-13.031
▁5.7	-13.0321
osylate	-13.037
113	-13.0376
erated	-13.0378
▁18/2	-13.0391
hio	-13.0396
.80	-13.0406
/86	-13.041
pc	-13.0415
gluta	-13.0425
dron	-13.0449
structions	-13.0458
▁thir	-13.0467
relative	-13.0484
▁stron	-13.0485
ker	-13.0508
▁ang	-13.0509
lve	-13.051
5-10	-13.0513
ntact	-13.0513
▁tem	-13.0518
((	-13.0527
icia	-13.0531
74	-13.0534
9/25	-13.0547
▁pho	-13.0548
ror	-13.0554
▁los	-13.0559
.49	-13.0563
flex	-13.0575
▁91	-13.0576
irth	-13.0601
ncom	-13.0606
meni	-13.0613
-73	-13.0621
.28	-13.0629
era	-13.064
ciati	-13.0641
bct	-13.0652
mar	-13.0666
curable	-13.0691
>/=5	-13.0696
ilbe	-13.0701
▁12/2	-13.0701
66	-13.0708
2-4	-13.0713
asectomy	-13.0717
8/30	-13.0723
▁relie	-13.0742
17.6	-13.0743
▁42.	-13.0751
oxan	-13.0765
iog	-13.0778
▁2.6	-13.0785
eb	-13.0809
vities	-13.0813
zur	-13.0823
rel	-13.0825
roc	-13.0834
▁<6	-13.0842
radi	-13.0844
186	-13.0855
arf	-13.0894
uit	-13.0908
pheno	-13.0909
3:	-13.0919
cain	-13.0929
/218	-13.093
0.98	-13.094
▁32/	-13.0961
291	-13.0963
▁14/6	-13.0963
2/40	-13.0974
esophag	-13.098
45%	-13.0994
▁undertak	-13.1009
8.1	-13.1014
wo	-13.1037
unts	-13.1051
cita	-13.1063
parent	-13.1065
lative	-13.108
nstructed	-13.1082
uz	-13.1084
gt	-13.1086
8/16	-13.1094
3/25	-13.1098
2.8	-13.1102
29.3	-13.1143
umin	-13.1152
rop	-13.117
▁sy	-13.119
215	-13.1195
▁recurre	-13.1203
tero	-13.1227
dak	-13.1252
bilize	-13.1257
▁(51	-13.1259
▁stri	-13.129
persisten	-13.1295
▁qualif	-13.1295
.4%	-13.13
hereafter	-13.1313
ocardiography	-13.1324
nfu	-13.1344
well	-13.1345
emen	-13.1368
3.25	-13.1369
1]	-13.1373
yn	-13.1375
sep	-13.1383
iety	-13.1388
300	-13.1395
oenzyme	-13.1397
orid	-13.1411
86%)	-13.1437
▁haemat	-13.1442
1/36	-13.1444
hig	-13.1449
94%	-13.1449
5.55	-13.1464
▁ff	-13.1464
alp	-13.1488
▁exte	-13.1489
neral	-13.1495
1/18	-13.1505
austr	-13.1511
facilitate	-13.1515
holo	-13.1533
rine	-13.1535
80%	-13.154
.1).	-13.1543
ud	-13.155
yro	-13.1568
▁sw	-13.1573
rti	-13.1586
2.0)	-13.1588
▁vit	-13.1593
▁decl	-13.1613
nizati	-13.1613
fix	-13.1615
eprazole	-13.1619
▁neurolog	-13.1635
anil	-13.1642
02)	-13.1649
ontan	-13.1656
]3	-13.1661
urable	-13.1663
▁spi	-13.168
rough	-13.1769
65%	-13.177
95%)	-13.1779
gp	-13.1791
dge	-13.1802
▁18/5	-13.1805
▁(48	-13.1812
22.9	-13.1817
▁ox	-13.1828
dium	-13.1846
incide	-13.1862
suppressi	-13.1868
ber	-13.1874
lear	-13.1906
fa	-13.1912
▁iri	-13.1935
▁dista	-13.1955
otoxicity	-13.1972
ovaria	-13.1974
ute	-13.1988
▁radiat	-13.2018
isco	-13.2061
▁unc	-13.2067
trop	-13.21
▁ure	-13.2149
57%	-13.2176
▁(15	-13.2183
▁specif	-13.2184
lds	-13.2191
zat	-13.2209
ulv	-13.2213
▁88	-13.2214
▁112	-13.2214
vide	-13.222
mous	-13.2223
54%	-13.2231
itu	-13.2238
therapy	-13.2241
▁>150/	-13.2276
280	-13.2278
des	-13.2287
▁215	-13.2302
sibility	-13.2312
raw	-13.2317
oph	-13.2318
acil	-13.2357
pressants	-13.2402
nei	-13.2407
8/1	-13.2416
▁ima	-13.2417
6/19	-13.2428
▁tn	-13.2481
erb	-13.2484
▁abl	-13.2488
rue	-13.2503
0.39	-13.2507
▁11/5	-13.2508
▁67	-13.251
▁sie	-13.2556
ibr	-13.256
ift	-13.2563
yl	-13.2591
▁mus	-13.2613
bra	-13.262
▁14/2	-13.2645
▁bri	-13.265
hemi	-13.2655
ding	-13.2668
ph	-13.2677
oxid	-13.2681
▁128	-13.2683
4.	-13.2688
ained	-13.2692
.46	-13.2693
/37	-13.2718
▁sus	-13.2758
4]	-13.2763
rang	-13.2775
megaly	-13.279
compu	-13.2792
icin	-13.2799
mat	-13.2811
itrate	-13.2828
23.5	-13.2858
1/43	-13.2879
ears	-13.2879
tca	-13.2919
.32	-13.2928
cle	-13.2932
fit	-13.2953
rob	-13.2955
van	-13.2972
0.8	-13.2978
▁<=2	-13.2981
▁deno	-13.2993
stitis	-13.3006
ft	-13.3008
▁existe	-13.3022
lisat	-13.3051
)1/	-13.3073
▁extr	-13.3091
▁tax	-13.3094
▁-9	-13.3098
▁86/	-13.3142
37.7	-13.3154
nted	-13.32
▁2/28	-13.3207
1.	-13.3225
1.05	-13.3238
ak	-13.3251
13.8	-13.3267
xt	-13.328
▁51/	-13.3291
lph	-13.3292
magne	-13.3317
som	-13.3327
▁depressi	-13.3342
▁fr	-13.3404
vert	-13.3411
▁multic	-13.3412
ero	-13.346
isce	-13.3469
complicat	-13.3475
umet	-13.3533
▁88.	-13.3544
dom	-13.3546
ire	-13.3562
rexate	-13.3565
▁initia	-13.3583
▁concu	-13.3599
iller	-13.3603
▁6/11	-13.3603
3.61	-13.3615
▁8)	-13.3633
▁hyperbilirubine	-13.3656
▁acro	-13.3672
▁79	-13.3682
je	-13.3719
▁21/1	-13.3739
▁directi	-13.3751
culos	-13.3753
▁pur	-13.3757
een	-13.3767
9/22	-13.3772
planta	-13.3775
sulfa	-13.3776
72/2	-13.3801
▁(<1	-13.3811
▁radiograph	-13.3839
▁pan	-13.3842
have	-13.3873
rance	-13.3875
▁creat	-13.3875
ssions	-13.3887
emb	-13.3891
ntal	-13.3898
▁mandat	-13.3901
▁justifi	-13.3911
measure	-13.394
3.9	-13.3956
ship	-13.3957
gui	-13.3966
onge	-13.3973
3/26	-13.3996
▁hem	-13.4016
1.36	-13.4025
ithin	-13.4029
ple	-13.4047
.29%)	-13.4074
.96	-13.41
1.7	-13.4132
208	-13.4144
ading	-13.4172
▁face	-13.4205
mended	-13.4252
▁(=	-13.4273
lit	-13.4276
▁others	-13.4276
-3;	-13.4279
activate	-13.4287
ecision	-13.4301
xyl	-13.4329
cytosi	-13.434
8.43	-13.4344
iral	-13.4369
gr	-13.4406
▁sup	-13.4407
▁bac	-13.4437
▁intell	-13.4461
plain	-13.4473
▁dra	-13.4476
prevent	-13.4482
cho	-13.4524
nine	-13.4561
gb	-13.4569
wil	-13.4611
7.9	-13.4628
▁eli	-13.4649
edi	-13.4651
▁151	-13.4682
ced	-13.469
17/2	-13.4691
▁15/4	-13.4725
2.4	-13.4752
trol	-13.4765
2/12	-13.4781
dac	-13.4805
err	-13.481
▁pancrea	-13.4822
notes	-13.4823
compare	-13.4848
ets	-13.485
▁fil	-13.4864
6.8	-13.4878
▁(46.	-13.4897
oft	-13.4897
focal	-13.4904
59%	-13.4905
gf	-13.4906
▁pra	-13.4922
▁39.	-13.4942
rupt	-13.4943
4/12	-13.4989
tar	-13.5007
ig	-13.5009
pp	-13.5022
▁meth	-13.5038
nting	-13.5062
mary	-13.5094
183	-13.5197
131	-13.5239
osi	-13.5288
hypersensitiv	-13.5318
ote	-13.5358
▁1.0)	-13.5364
2/53	-13.5366
▁allo	-13.5369
14.	-13.5372
proved	-13.5379
▁23.	-13.5386
▁<=1	-13.5395
627	-13.54
▁fol	-13.5403
▁coagulati	-13.5405
▁[1]1/4	-13.541
tes	-13.5415
deline	-13.5425
togen	-13.544
▁metabolize	-13.5461
.18	-13.5468
erine	-13.547
anas	-13.5479
0/14	-13.5485
gate	-13.5486
▁7.0	-13.5515
osed	-13.5544
ramin	-13.5596
▁ribo	-13.5628
iti	-13.5691
)]	-13.5703
alo	-13.5732
▁18/1	-13.5745
1/5	-13.5758
▁cob	-13.5794
yle	-13.5832
pple	-13.5868
men	-13.5879
tage	-13.5918
.04	-13.5923
ample	-13.5978
hea	-13.5982
rab	-13.5982
haemia	-13.5985
▁bre	-13.5996
rro	-13.6001
/42	-13.6004
atus	-13.6027
▁20-	-13.6046
hough	-13.6065
▁ovar	-13.611
▁71.	-13.6112
ervical	-13.613
▁10/1	-13.618
steroids	-13.6223
▁13/1	-13.6235
lop	-13.624
▁endoc	-13.6253
.08	-13.6293
.35	-13.6302
7.46	-13.6351
▁glucocortico	-13.6399
25.9	-13.6409
ocla	-13.6452
amo	-13.6455
tting	-13.6457
elve	-13.647
▁ring	-13.6486
rache	-13.6493
▁differentia	-13.651
urol	-13.6536
tens	-13.6542
sur	-13.6545
ni	-13.658
yclophosphamide	-13.6611
phone	-13.6626
action	-13.6686
2/43	-13.6695
during	-13.6719
cepti	-13.6743
▁lute	-13.6748
5.21	-13.6753
nos	-13.6762
aline	-13.6774
acl	-13.6815
imal	-13.6815
erro	-13.682
▁tw	-13.6828
espi	-13.6833
rast	-13.6895
iso	-13.6916
tur	-13.6928
16/3	-13.6932
sty	-13.698
▁aus	-13.6992
lice	-13.6995
lita	-13.7002
onin	-13.7002
7/37	-13.701
aged	-13.7032
▁go	-13.7093
separat	-13.7126
16.5	-13.7142
214	-13.7144
genera	-13.7156
odine	-13.7156
ita	-13.7176
diagnosis	-13.7178
▁12/8	-13.7211
lial	-13.7225
▁tho	-13.7237
fus	-13.7292
48)	-13.731
eso	-13.734
▁preclud	-13.7371
bac	-13.7397
8/21	-13.7416
▁53.	-13.7426
▁insufficien	-13.7446
▁serolog	-13.7472
effective	-13.7501
~1	-13.7546
▁(%)	-13.7611
▁)	-13.7614
▁append	-13.7632
ton	-13.7637
▁ensur	-13.7677
halo	-13.7695
cn	-13.7707
mic	-13.7723
tv	-13.7728
19.57%	-13.7734
8%	-13.7751
011	-13.7756
fe	-13.7779
.60	-13.7796
▁mid	-13.7813
++)	-13.7841
32.2	-13.7846
expression	-13.7856
multic	-13.7899
▁cou	-13.791
under	-13.7912
spi	-13.7949
east	-13.7967
tdp	-13.7988
sea	-13.8014
25.8	-13.802
orta	-13.805
farn	-13.8056
▁dy	-13.8086
▁loc	-13.8096
train	-13.8149
▁ster	-13.8198
▁aort	-13.8217
▁emb	-13.8224
mandatory	-13.8224
hospital	-13.8228
opia	-13.8229
pemetrexed	-13.8256
erbb	-13.8259
unti	-13.8265
rapam	-13.827
▁sit	-13.8287
4/4	-13.8289
.3	-13.8306
plasty	-13.8333
.88	-13.8358
0.1	-13.8368
▁cohor	-13.8371
▁6.1	-13.8409
ectomies	-13.8428
eracil	-13.8433
▁imm	-13.8446
▁interl	-13.8453
▁analog	-13.8458
▁docetaxe	-13.8481
orphine	-13.8502
eukopenia	-13.8506
ubcutaneous	-13.8507
istologically	-13.8508
ò	-13.8509
sonograph	-13.8509
û	-13.8509
▁constipat	-13.8509
▁deteriorati	-13.8512
1/6	-13.853
▁cardiovas	-13.8531
▁fourt	-13.8536
mina	-13.8545
ducts	-13.8565
ither	-13.8576
▁cycl	-13.8586
0.45	-13.859
cardial	-13.8607
mrt	-13.8636
ematoma	-13.8636
ophili	-13.8655
▁anxi	-13.8682
thr	-13.8683
▁criter	-13.87
▁vie	-13.8705
aries	-13.8716
002	-13.8732
cted	-13.8741
▁stabl	-13.8749
lact	-13.8772
retreated	-13.8795
▁ten	-13.88
▁compl	-13.8805
▁bra	-13.8837
ord	-13.8844
multi	-13.8867
▁lin	-13.888
>2.	-13.8885
▁stand	-13.8895
thes	-13.89
endo	-13.8923
▁emi	-13.8925
▁prece	-13.8933
nteritis	-13.8955
pati	-13.8967
▁75,	-13.8976
arti	-13.8989
sthenia	-13.8989
▁fam	-13.8994
-6.	-13.8996
▁oncologi	-13.902
8.2	-13.904
2.38%	-13.9051
5.	-13.9068
▁*3/2	-13.907
6.4	-13.9093
gilbe	-13.9113
.65	-13.9115
sm	-13.9142
ecau	-13.9152
▁bear	-13.9155
▁syst	-13.9214
▁phys	-13.923
▁alcoholi	-13.9239
hm	-13.9257
fo	-13.9273
cles	-13.9305
ou	-13.9316
▁seri	-13.9323
chro	-13.9326
▁mea	-13.9359
▁suppressi	-13.937
ub	-13.9372
0/73	-13.9387
▁pla	-13.9393
rav	-13.9412
▁initiati	-13.9441
6.7	-13.9444
1/75	-13.9447
▁gastroe	-13.9484
-25	-13.9496
nib	-13.956
ny	-13.9571
▁dox	-13.9608
▁slo	-13.9638
ws	-13.9712
▁loca	-13.9732
ston	-13.9742
verse	-13.9761
mum	-13.9792
ipt	-13.9817
uco	-13.9821
lax	-13.9874
conc	-13.9906
11.5	-13.9932
224	-13.9941
fri	-13.9949
500/	-13.995
pts	-13.9988
istol	-14.0057
partic	-14.0088
3/20	-14.0093
apsed	-14.0105
mitte	-14.0136
ka	-14.015
▁deco	-14.0158
ear	-14.0182
10.0	-14.027
stimulati	-14.0302
▁rat	-14.032
▁techni	-14.035
mmo	-14.036
corticosteroids	-14.0367
ek	-14.0377
▁feed	-14.0383
▁hu	-14.0422
fed	-14.0431
▁81.	-14.0431
▁uc	-14.0448
▁rece	-14.0466
band	-14.0518
aso	-14.053
▁suppo	-14.0657
ndri	-14.0661
pher	-14.0725
▁basi	-14.0737
▁opi	-14.0738
▁102	-14.088
di	-14.088
▁ade	-14.0906
▁wom	-14.0934
5.5	-14.0937
ess	-14.094
▁fur	-14.0946
24%	-14.0984
▁stati	-14.1004
2/36	-14.1052
▁tox	-14.1061
oli	-14.1072
▁corre	-14.1081
▁gluco	-14.1102
ais	-14.1103
▁45.	-14.1148
▁vol	-14.1222
▁exce	-14.1238
ntage	-14.128
8.9	-14.1285
7.5	-14.1304
aining	-14.1306
▁4/21	-14.1338
idoc	-14.1354
onary	-14.1376
ect	-14.1412
.]	-14.1426
▁acr	-14.1471
▁derma	-14.1481
scia	-14.1483
.86	-14.1528
guid	-14.1554
9.	-14.1591
▁pol	-14.1597
▁(40.	-14.1598
38%	-14.1608
148	-14.1609
ati	-14.1693
103	-14.1745
combin	-14.1746
nital	-14.1778
cau	-14.1796
▁intradu	-14.1802
20%	-14.1843
18.3	-14.1971
.95%)	-14.2005
▁21/21	-14.2033
0.96	-14.2035
8;	-14.205
ustif	-14.2148
3.6	-14.2168
▁94	-14.2245
/15	-14.2264
tem	-14.2289
▁28.	-14.2341
0.43	-14.2466
ermal	-14.2467
1;	-14.2471
▁2.2	-14.2485
▁adv	-14.2519
17.9	-14.2525
mole	-14.2543
usp	-14.2557
.61	-14.2564
iated	-14.2574
enting	-14.2611
3/41	-14.2626
ala	-14.2638
/11	-14.2662
▁10-	-14.2679
▁fs	-14.2693
rose	-14.2699
2.9	-14.2718
]2/	-14.2719
▁9/1	-14.2738
rno	-14.2773
ppl	-14.2776
tp	-14.2862
omi	-14.2875
.63	-14.2889
spin	-14.2945
cent	-14.2947
ttenuated	-14.2951
▁4%	-14.3026
▁bes	-14.3032
atel	-14.3068
oate	-14.3071
4/2	-14.3083
uni	-14.3197
water	-14.3204
.6	-14.3266
hes	-14.333
dar	-14.3389
▁78/	-14.3403
lis	-14.345
now	-14.3452
▁pati	-14.3461
ona	-14.3464
dictive	-14.3486
▁2/19	-14.3512
wed	-14.3568
glycemi	-14.3575
.5%	-14.3629
spa	-14.3652
▁dif	-14.3667
▁ple	-14.3692
derm	-14.3709
tiv	-14.3733
cussion	-14.3744
nit	-14.3766
ings	-14.3808
mple	-14.3828
5.6	-14.3833
indi	-14.3845
flu	-14.3887
lves	-14.389
▁bos	-14.3913
ang	-14.4011
▁nitr	-14.403
tom	-14.4032
13.3	-14.4077
bit	-14.4079
preventi	-14.408
ay	-14.4127
alities	-14.4144
(0.00	-14.4158
24.0	-14.4161
▁ob	-14.4176
5,	-14.4213
ited	-14.4252
/45	-14.4259
egular	-14.426
▁(-	-14.4296
▁fre	-14.4297
ado	-14.4463
▁[2]1	-14.4545
onda	-14.4593
▁unifo	-14.4593
ief	-14.4604
ound	-14.4658
ano	-14.4675
mes	-14.4698
activ	-14.4794
compar	-14.4828
logical	-14.4837
tosis	-14.4943
sible	-14.5028
caps	-14.5055
27/	-14.506
terna	-14.5072
▁-8	-14.5087
ncology	-14.5113
eter	-14.5149
▁beg	-14.5163
cc	-14.5224
itt	-14.5294
0.25%	-14.5331
ru	-14.534
ective	-14.5353
cision	-14.5375
erved	-14.5377
▁stab	-14.5381
,7	-14.5437
00.	-14.5513
▁chem	-14.5531
posi	-14.5539
33/	-14.5756
llic	-14.5808
▁[3]	-14.5811
unc	-14.5851
50/1	-14.5972
▁assesse	-14.6012
267	-14.6037
▁cho	-14.6048
elic	-14.6058
rant	-14.606
▁insuf	-14.606
.39	-14.6079
table	-14.6097
rning	-14.6119
haz	-14.6138
].	-14.6149
▁inv	-14.629
position	-14.6299
▁densit	-14.6337
sulf	-14.6361
▁let	-14.6398
▁matri	-14.6407
▁obes	-14.6411
denopathy	-14.6446
tan	-14.6514
irs	-14.6581
132	-14.6588
1.56%	-14.6595
ithi	-14.6595
alat	-14.6686
fini	-14.6703
▁tende	-14.681
▁glut	-14.6823
ogen	-14.6882
20/16	-14.6898
ret	-14.6924
aken	-14.6938
bdominal	-14.6944
ematological	-14.6951
compet	-14.7061
complicate	-14.7063
.52	-14.7099
▁abi	-14.7189
8-	-14.719
cedi	-14.7207
vis	-14.7219
▁offic	-14.7221
80.	-14.7252
2/2	-14.7328
▁<1.	-14.7342
ske	-14.7476
28.	-14.7481
angio	-14.7482
▁top	-14.7517
▁40.	-14.757
▁granulocyto	-14.7608
cytos	-14.7658
tained	-14.7676
4/21	-14.7696
...	-14.7928
3+	-14.7944
sam	-14.7955
▁29/	-14.799
▁inf	-14.7991
mins	-14.7998
rg	-14.8028
ank	-14.8079
oms	-14.8255
nset	-14.8283
ner	-14.8291
▁46/	-14.8362
▁71	-14.839
ow	-14.8427
ys	-14.8434
osp	-14.849
▁hepat	-14.8506
cou	-14.8512
▁labe	-14.8636
bu	-14.8649
▁21.	-14.867
9.8	-14.8719
▁gre	-14.8811
.0).	-14.8886
kin	-14.894
▁54.	-14.8997
nas	-14.9009
▁corti	-14.902
wel	-14.9028
))	-14.9039
char	-14.9135
▁16/3	-14.9166
rious	-14.9183
llness	-14.9277
/34	-14.932
▁enteri	-14.9413
/22	-14.9473
rad	-14.9541
seas	-14.9549
terial	-14.9566
rat	-14.9601
eously	-14.961
▁depress	-14.9625
7/19	-14.967
bjective	-14.9675
cally	-14.9752
▁gran	-14.9797
▁var	-14.98
icienc	-14.9914
▁muta	-14.9944
.1	-14.9946
eparation	-14.995
▁anemi	-14.9989
▁apl	-15.0101
31.0	-15.0102
ional	-15.0121
14)	-15.0216
abra	-15.024
rain	-15.0308
oxida	-15.0309
▁11/4	-15.033
▁8/1	-15.0377
▁medic	-15.044
9.3	-15.0476
eop	-15.0478
]1/43	-15.048
8.3	-15.05
dimension	-15.0518
oss	-15.0565
depress	-15.0617
even	-15.0644
ream	-15.0671
nous	-15.0754
ica	-15.0786
itia	-15.0795
ime	-15.0866
▁wors	-15.0882
/1	-15.0885
▁consiste	-15.1009
phas	-15.1262
mpute	-15.1298
▁sco	-15.1394
express	-15.1397
0/33	-15.1412
▁fet	-15.1505
rated	-15.153
3/4	-15.1541
pas	-15.1544
ili	-15.1549
3-	-15.1551
13.2	-15.157
lied	-15.1572
agin	-15.1592
ctively	-15.1608
odal	-15.161
ogene	-15.1648
isa	-15.1673
ain	-15.1705
erparathyroidism	-15.1805
sone	-15.1808
linde	-15.1882
265	-15.1896
cele	-15.1905
/4	-15.197
urrently	-15.2
dis	-15.2003
fected	-15.205
▁macul	-15.2102
ï	-15.2334
}	-15.2335
#	-15.2336
̈	-15.2337
~	-15.2338
